/**
  ******************************************************************************
  * @file    network_data.c
  * @author  AST Embedded Analytics Research Platform
  * @date    2026-06-02T02:47:26-0300
  * @brief   AI Tool Automatic Code Generator for Embedded NN computing
  ******************************************************************************
  * Copyright (c) 2026 STMicroelectronics.
  * All rights reserved.
  *
  * This software is licensed under terms that can be found in the LICENSE file
  * in the root directory of this software component.
  * If no LICENSE file comes with this software, it is provided AS-IS.
  ******************************************************************************
  */

#include "network_data.h"
STAI_ALIGNED(8)
const uint64_t g_network_weights_array[61049] = {
  0xebf7dbf5fc0ef205U, 0xf3f80411e8f70fd3U, 0xf2ffed3ce2030104U, 0x1303decc0ed50c06U,
  0xde0d78be1ae9fbd3U, 0xa1d0e30c6d1c105U, 0xc4f9d7ee08ecf309U, 0x4c7c90acdcdfec8U,
  0xefb0ddec20ac1beU, 0xf3ffd5d01636e900U, 0xbf9c0f52bdc0e1bU, 0xba3dfeebd701fcffU,
  0xf7e9e9cd0df9f804U, 0x40a09fbc80c0ba9U, 0x53140ae3fd12f8fbU, 0xfdf5da2aea643608U,
  0xc19fe013615081bU, 0x3200f5f3fec38e9U, 0x30f85932f33927ffU, 0xd253eeb3e140a42U,
  0xff2af80e00142ae5U, 0x53ffdf32f607f3f8U, 0x801f9027f4306f6U, 0xe1ba00033a03ed26U,
  0xfdff1032005df7fdU, 0x9ec0c1207f6ef24U, 0x612de4e2a11c9f7U, 0x112f00000534U,
  0x42400000660U, 0x19b0000033bU, 0x2d6ffffffd7U, 0xd4ffe41728fbdc00U,
  0xb6eea7031608de1cU, 0xed0df120e0f393e6U, 0xc007cf16fe0c1001U, 0x1703aa021709bc0bU,
  0x3fe0fb05118bfbU, 0xfc0dc405141ff30fU, 0x2d13e2f22518cf1fU, 0xfcdfb5fade0df90fU,
  0x38fad6f3e8f5cefaU, 0xe0e5d3e40d0b010fU, 0xddacdf5f10a1dd1U, 0x7ebf6210e07ec0eU,
  0x5f3f10e0e020610U, 0xfe04d509f90e02d5U, 0x140ec9ff01eb022fU, 0x32f81028faf8e8faU,
  0x2aadfd1cfe923fcU, 0xc601ffedfaeee702U, 0x161e03fa01e90aU, 0x10110c06f605fae1U,
  0xf10917fafb06f400U, 0x3213bf702040e0dU, 0x4175224e001f6f0U, 0x3b10f6000c0307ddU,
  0xf1e1a3b0ac820e7U, 0xf01192302e31306U, 0x7090cdc08ed11f1U, 0x142f2823ddf9f5f3U,
  0x1700f2e0f2fe0afaU, 0x53af9e8fa0b00f5U, 0xf419ee3b25f1da03U, 0xfc1013fbf3000234U,
  0x4b7070f0a0afae5U, 0x91132f3eef20ad6U, 0xc608ed281905edfbU, 0xc15030500eb4a00U,
  0xff07e002eeda1d18U, 0xc9425e2a33cf270fU, 0xfae1f7f3cdf6e61aU, 0x3a0013f1f0081310U,
  0x100fcc3e3ee10fbU, 0xfdf712fc0d0de9fcU, 0x11ffe7deeff6141fU, 0x1ef82ce940fa0401U,
  0xcef03e1afff0e0f1U, 0x73e341c8d30ed3d5U, 0xef41dd1eff61304U, 0xfe17d0e71a00f012U,
  0x70c88d4091a8efaU, 0x19d31103df09e302U, 0x2a1f81211222eeeaU, 0x27199aef180aba22U,
  0x21e8531beccffe0eU, 0x2aeb0ec8f5e109ddU, 0x11141b01171a0115U, 0xb5f7e90308ea01caU,
  0xd1f22d1ae8010810U, 0x2fd50441f6db29fcU, 0x1ef5e312e414fbfcU, 0x7fe0dfb05e2ebedU,
  0x15f3213b21e3ea04U, 0xc9051de4dc24ecf1U, 0xc50606f8050706f0U, 0x9af4f2f7ec1c1701U,
  0x240ecd1cdf12efebU, 0x5f4e8110512d9edU, 0xe9eae1e5f815fa0fU, 0x403c9ffec07df1cU,
  0xf3fec21cf00b11d0U, 0x111bd8fc19f1e9faU, 0x2edb0603fddffefeU, 0x57f000003e2U,
  0x2ecfffffdddU, 0x12affffff02U, 0x456000002a7U, 0xa0bdadeecfb0104U,
  0x30edbf70502170eU, 0xf40df511292f0ad1U, 0xf6e5ff08f0effddfU, 0xf113f5fee8ec0a09U,
  0xfdec1c0efadbec28U, 0xf40b050e0b0f05f7U, 0x7ea1518f1d8fdf8U, 0xfe1705d610e0020aU,
  0xc846070b0e10e6d9U, 0xf6ebcbfb02f4f0fbU, 0xf0bebf6ed06f3f5U, 0xe70eec20fffe04ddU,
  0x6f623160213fdU, 0x4000f2dfd1afe00U, 0x21defe9082efaebU, 0x130cf1fd03d1f80cU,
  0xf9e5f6e804eff21eU, 0xf703ddeb12f80cf5U, 0x23f4050306d90316U, 0xf60a05fafbff020dU,
  0xe214ee09e3eb02ebU, 0xcfcf6040df410faU, 0x1fff80105eb01f9U, 0xf303f426f4eb08d6U,
  0x606ffebfbfdfc03U, 0x3050df01ced090fU, 0xfd17f8f6ed0c1d0aU, 0x202301010b0bf714U,
  0xe6f9f30ffff3f603U, 0xee0c0702f803f6f0U, 0xe11fcf1192edd0aU, 0xfb14d8f307130a0aU,
  0xe71bfcf5e4f70a09U, 0x13fae5161b0beeedU, 0xed0ddc0108150ae9U, 0x201f8fbf201f609U,
  0xe83d10fc002c02ebU, 0xf7f90f1e0204f005U, 0x13fdeaf5fde70a0cU, 0xdc0af40dfe11faf2U,
  0xf61f14070a12f0efU, 0x14f702f9fb07221bU, 0xd00f0400db2318e4U, 0xfb00fcfbe7f6f0fcU,
  0xdf50fd2040a1a11U, 0xf0f02e1a0917f70bU, 0x11e9fffd08f8e9f7U, 0xf9f3fbfafa00f1ffU,
  0xf4232114f607f513U, 0x150bf00cdce5fe0bU, 0xf70202ea04f00c06U, 0xdc171a0d1c101bddU,
  0x1cfddc0e0927e4f8U, 0x501fb01dc0006e3U, 0xf5ded0e5e3f2fbfcU, 0xfaef01120612f4d0U,
  0xee40b1605ed1306U, 0xfb03fff815c30eeeU, 0xf810effae9d5f2e9U, 0xff140bf90dea03f8U,
  0x1dcc15060181e310U, 0xff1d0a1c06f1fa12U, 0x7f1fd0bfbfc1505U, 0x7ef09f5faf7081cU,
  0x2d3001905e8f908U, 0xf7111efbfdf309eeU, 0x13e710e60be60e05U, 0xff310f3f9f5fc06U,
  0x6d30015fbea0311U, 0x90101e803fe1411U, 0xf7090ff6ebf50c04U, 0xfb05ebf50ad40afcU,
  0xb12ecf5f2f20c13U, 0xecfbeffdf6c8f2f1U, 0xfcfbf0f709032510U, 0xfe32f8170f3100efU,
  0x513ee04fd0efe08U, 0xfce319f91109f2e3U, 0xef1c14e2101b24fcU, 0xec051c09eefa05ecU,
  0x987fdd200c4e52aU, 0xbf935e8f705f50aU, 0x21b01f7fa1910d9U, 0xfeefface1106e90dU,
  0x1cbc37d11503f725U, 0x207120e18f8fc00U, 0xfa2a0113ff1400d9U, 0xf714def313f4f401U,
  0x5f7f0e607d2dd05U, 0xfd112203e70a01ffU, 0xfefae5fef51af5f1U, 0x7d9100702e50312U,
  0xff2905021412ddc5U, 0xf93103030914fcddU, 0xfa010c1400d409efU, 0x22fbf71d06121419U,
  0xfa1dfaf3fd0c03f9U, 0xc0308e61ef3ff05U, 0xe50709f9f916e8e8U, 0xf615ee08edfff1ebU,
  0xe707efebf0f7fafaU, 0x9f90b061603f103U, 0x16053b0811f7f30eU, 0xf0b191f14fd07f5U,
  0x14cf04f502d10f28U, 0x13e632ec070a141bU, 0xfffb08e9fb1f03f8U, 0xefe04182b0fecf0U,
  0xf50b98ed0514fee8U, 0xfb1cdc1208fafafaU, 0xecf1fffb00f8f4f8U, 0xf61682050600fadeU,
  0x1824f1ddfd1c0011U, 0x702240e06fc06fbU, 0xea01f0eee3eb20b7U, 0xf212da13132414f8U,
  0x11d11401141b251eU, 0x13d6ff09fbf6fe0eU, 0x13061f150805201cU, 0xffd818190ec3c2U,
  0xcfaeefc08eafecbU, 0xf40fd8fc111bfcabU, 0xf6fefcfff7faffU, 0xee0512edf814fdf5U,
  0x9eb1409f0f0eff8U, 0xede5f007f5e1fee9U, 0x8f3f5e305c7f805U, 0x1ef20814fbe20b11U,
  0xf000fb1d0e0406e9U, 0x1b4f19ea1d370607U, 0xf91bf0dd112e0cf1U, 0x304f005fefbeffdU,
  0xf5152df0e50a02ffU, 0xf502fdfff70a0603U, 0x171b03fce4f50600U, 0x11160c1ff80cf104U,
  0xa12efe1140c0de1U, 0xf7ef00f1e20c03f0U, 0xf4f5f310eceffaeeU, 0x100c1e8f00317dcU,
  0xb0a1731120af50cU, 0xddf0a0cef01f2ffU, 0xd00ade2505250812U, 0xffffffe4000002f6U,
  0xfffffde900000573U, 0xfffffec2ffffff39U, 0x15e00000340U, 0xfffffb880000003fU,
  0xaa0000005eU, 0x285000002e7U, 0xffffff10000001d9U, 0xefd6160a03f3fd10U,
  0xa0bfdfa06f8040dU, 0xead11a1213df16f2U, 0x326fe0806120e21U, 0xf0d2040e09e60a02U,
  0xf1fcef0b0bf72b06U, 0xe70aec12fd05e90dU, 0x81a0ffef2050f01U, 0xdd02031425effafcU,
  0xfa2eede30b0a031eU, 0xed0cfb08fbfdf4faU, 0xe90df9e50c070b1bU, 0xf915fcf1f1ffe701U,
  0xfd090af4f301f7f3U, 0xfa1bf7f8fd00e6f9U, 0xfafeebe5effa0312U, 0xf0c08eef3e6dde0U,
  0x205f0e80ce9ee06U, 0x8f1fafb0718e8feU, 0x1e040b0a010717faU, 0xe8f70df0f819f511U,
  0x15f009f807f70301U, 0xfe11f81cf2ebeef7U, 0xa19faf1e80109fcU, 0xe71f160ae5011902U,
  0xd2f31c0d0704f10aU, 0xe6020c00fef9040dU, 0xf1190dfcf5f9fdU, 0xf9fafeeafc0a0a0bU,
  0xffdd12eb0d13ccfeU, 0xc02f90401f708dcU, 0x1c06f31303faf800U, 0xec021f0105d00803U,
  0xf8f2e7ee03edfafaU, 0x1407de07f927fefcU, 0xfe090b14fd17fc06U, 0xf101f60711dffdU,
  0xe5f7fdfbfa07eeU, 0xf6f00cf9060defebU, 0xfbf30600fbfef2U, 0xf8e80b0408eb0006U,
  0x3faf72207030304U, 0xf9ec03f9080405ebU, 0x402090b05f80af5U, 0xfef0020403fb02f3U,
  0xf81212ff050d0324U, 0xeff30e06eb1ef1U, 0x141513171412d216U, 0x2fd010212f50dfeU,
  0xa01fd06090001fbU, 0xf7f617001aed070eU, 0x60608f90207ed22U, 0xfd06f2050ae81731U,
  0x3fcf9fff9efdc05U, 0xff0400fdf4f7ffffU, 0xf705f5f401fb0403U, 0xf1fe05f5f500fe04U,
  0xf5fbf5fcfd070207U, 0xf403f1f4fbff05f5U, 0xf309ff07fb0afffaU, 0x1f2f909f504fa02U,
  0xfdf7f4fc08fbfc09U, 0xfd0902f3f4f7f706U, 0xf60604faf2f2f9f5U, 0xfafcf6f0fbf7f804U,
  0xfc01faf4f6f5fcU, 0xf80503f8f9040705U, 0xf90100fc04f3fa07U, 0xf0f4f208ff06fbf2U,
  0x40603fa03fc00f1U, 0xf60706f003f50603U, 0xf6080c01fd0201fcU, 0xf602e6d2f3f11902U,
  0xf0130a09f412e4faU, 0x708f105f305f5eeU, 0xebfb090d12e5f3f3U, 0xfb0003f7fc05e30aU,
  0xfcefeefbf2f0fa09U, 0x102c3e3100a0d04U, 0xf31411f2ee00fbf2U, 0xd1207fdf3f9f417U,
  0xfe06111508ff0f06U, 0xfdfc08fdee07faedU, 0xfa1324f6fff309deU, 0xeefecbdcfcfc091bU,
  0x612f20cc30fdeffU, 0xf60405db0a15fe12U, 0xf40805dbf80209U, 0xf41413e6f90df6f6U,
  0xfcf4040ee6ef0c27U, 0xeb00f701e7021d05U, 0xf5eb100e21e80bf3U, 0xe802ef0ef613110aU,
  0x9df010e0cf2c703U, 0xcffff707f8ff0312U, 0xfffaf1ff18eedc01U, 0x2f910f7dd05f8faU,
  0xfe12fd0fecf304ebU, 0x30df8f1e3f7f2fdU, 0xfdfcfb07ee060dfaU, 0xf40305ec06ed0eU,
  0x5ff0afff803130dU, 0xfd0ff7f6ebf7ede8U, 0xfbfc0f0601f40003U, 0xff0b08e001f80410U,
  0xf906d9d61ae6130bU, 0x1cebef0ce713f8feU, 0x300fbf9fc130b16U, 0xfef3fc150c0100fcU,
  0xa17fdfeef1e0002U, 0xf805f5e8081d020cU, 0x17ec0c0bf8e1fce1U, 0xffe10306f0f7e2fcU,
  0xed0efaec00e909f9U, 0xe50cfbf4fa0af016U, 0xff04ed02d2ed021cU, 0xe4f9f5efef03f5fdU,
  0x1f41412d5ef020bU, 0xf7f91bfb06f0ebecU, 0x11f80e29d8e60506U, 0x1ae5f8ff1012f9efU,
  0xeefa26ee1329eaf7U, 0xf41611ecf7fbf0eeU, 0x6ea1b0f011cfaeeU, 0xf4f801fc000a11f4U,
  0xe0e27fb0b12e9fcU, 0xfef7120f0ded0f07U, 0xef0afb0fec1109fbU, 0xdfef2cfe10e1a09U,
  0x9fd0915f7fdf6eeU, 0xfef9eb0401f6fdffU, 0xeb00faf2f3eefaf4U, 0xf6f6101003020310U,
  0xfc09fb22e9fb15f4U, 0xfa05f7f40607fef7U, 0x4f50100d1f3fbfeU, 0x11f609fbf708fd05U,
  0x3f6f418020706f2U, 0xe019010b0508f4ebU, 0x6ed101800f50b01U, 0xa00fb0010f9ebedU,
  0xfb170919c8eceb06U, 0xfc0603e915e7f8dcU, 0xd280326dcf0191cU, 0x6011401070ff5f2U,
  0x1af610ed0d13fbfaU, 0x9f4f0f213040104U, 0xb00fdfbfa0808e6U, 0x71af301ef01f9ffU,
  0x1e29071204f50fe2U, 0xdf0bf9e4f007fd05U, 0x12fddf06f603fffcU, 0x6e4d306e507fe03U,
  0x12fffcf1f9eabc03U, 0xececf1f606f61522U, 0xf2f7f6ec08ecfc0fU, 0xf0ee1f071bf5fe0eU,
  0x5f41ae613061102U, 0xbfcda14f811fef3U, 0x9f00814fa0be005U, 0x304050b0904fdfaU,
  0xe6fd0302f9100bf4U, 0xf9ff0512f00df423U, 0xda01ed02fc0824fdU, 0xf6d6ef0afa19d705U,
  0xcf11d0e7f8e21d02U, 0x204f4f700f1effaU, 0xde0ce1d90aee0001U, 0x3fd02f80010190dU,
  0xb7fc00d3200ef7ffU, 0x14fa0cfbef0dc228U, 0xd30fc1d60bc008e8U, 0x60301e904eae31cU,
  0xe70cc1efeec6f705U, 0xfd0105f8150110fdU, 0x6ed11fc16ffed04U, 0xbeefae50803fe1bU,
  0xfd21d8f408fdf40eU, 0xfcff0b090f12df10U, 0x31cdcd8e4f20d0cU, 0xf704eae8de0715f4U,
  0x1e00e0cf505e9ffU, 0x606f5fdf80c0f11U, 0xf300030dfb01b52aU, 0xfc09e61808102ff5U,
  0xfb0119f11e0dca13U, 0xfbfff800edee0200U, 0xf8f9fff80400811aU, 0x1f50600fb1a10U,
  0xf702f4000901b9fdU, 0xf40afe0e0502f12aU, 0xffe8fef902e6caf2U, 0x2ee090ef9f00d03U,
  0xf80df9f6f91bd513U, 0x207f2f7fd080d09U, 0xfbf1fdfd05d9ffU, 0x107f6fb0500f6f9U,
  0xf1080809fd070ddbU, 0xdf5fa00edf60df1U, 0xedfc09f3f1f4f407U, 0xf415fbe8040ee1fbU,
  0xfe04f8ea1e05fcfeU, 0xf5fbfd1ee4090a05U, 0x406080e04f9fc02U, 0xdf703020303fdf8U,
  0xf10210f3ebeff0feU, 0xf7e117fc0bfcc0f1U, 0xee7f600f3f81706U, 0xefd3131809e1f8eeU,
  0xf60cd7f8ff0a080aU, 0x110110c120707faU, 0xfaf9010b0afceb0bU, 0xf1e8f2f7000800ffU,
  0x5ff19e40c00f7e9U, 0x3ed040a0208fc07U, 0x1022eecfb05fc00U, 0xd6e800161ad70bfcU,
  0x132a01e5f90bfc21U, 0xeeda000710c81ff8U, 0xf909ff18ff1d0412U, 0x8f20108f2f6fc06U,
  0x3fefb0202ff0c08U, 0xf106fdfd18d3fd13U, 0x50c02fbf5081114U, 0xf0f90d030ae31801U,
  0xf5f70401080deefeU, 0xdfdfb06f602f4ffU, 0xf908fe13f8f6ef0aU, 0x804ff0206f40201U,
  0xfc09f3f5fbfa0216U, 0xfef90603f3fa0105U, 0xf90407fef80af705U, 0xf9fa03fdf10bff0aU,
  0xed09f60a07f3fc07U, 0x13f5ff09f40b05eeU, 0xcf30703060217e8U, 0xeb090b17e8fdec00U,
  0x302fe17f40eeefaU, 0xf905dafaf31e21ffU, 0xeb0afdfb0bede5f5U, 0xf001f2fcebfd08ebU,
  0xfedfe3fa22f6fa0aU, 0xec140009df21fa10U, 0x2fa0b07ff0d04f8U, 0xa12f5fe170bf718U,
  0x107e415e2e7b0f6U, 0xea1a00fbf803e80eU, 0x11f8e60c05f50602U, 0xf2ce2120e80beb06U,
  0xf11108f1f105e816U, 0xfb02ece618041a0bU, 0x1fdde0fe5fdc90aU, 0x3f5070d00fe03f5U,
  0xf71206ed06050c08U, 0x20c0b07010812faU, 0xfbfbf9e3020ff50eU, 0xfcf6ee0afae800f7U,
  0x1408f9e8040ffbf5U, 0x600e906eb08fd0bU, 0xf317f9e2ff0b0de2U, 0xfff5e8eeed0500efU,
  0xc7fb08da0febf4f7U, 0xf1f70c03f6ef09e4U, 0xe811f3c925f9ee15U, 0xc0405ef15000005U,
  0xf41b06091b0df0ffU, 0x13e2f9f7f30afd1fU, 0xf8fae9ede5f0f30fU, 0x7eb180cf7e8f005U,
  0x120ff5e9f2fa1e19U, 0xf13f817fa010d02U, 0xe50c1714f203e91eU, 0xe4db2b0805f3f4f4U,
  0x3409fcd7fa020500U, 0xf300ce1009ee17f5U, 0xec00011ce5fef1fbU, 0x408140f0af6f204U,
  0x11ec090ef1f613f3U, 0xeffc091209fdfdefU, 0xecc0104e6f70bd7U, 0x4fcf3f8fa030707U,
  0xf4ecfdfdd3fae4e1U, 0xeaff06e9f2fb02f6U, 0x50d18ff02010406U, 0xf501f5120708fb0bU,
  0xfed1f708fafbea10U, 0xf70cf10314f905U, 0x304fafdf3f7c710U, 0x15efffffe35U,
  0xffffff370000001aU, 0x23600000140U, 0x2f000000b2U, 0x3fb0000003cU,
  0x18d000000a0U, 0x211fffffc80U, 0x104000002f0U, 0xf618f304020904fdU,
  0x17df040b11060c16U, 0x1b020504f8f1f1e5U, 0x1de0516fc15030cU, 0x82317fa03faf207U,
  0xbf4f40d02fafef2U, 0x15fd010ef70215e6U, 0x6f8ff04e4fbdee4U, 0x3f912fbfbf409dbU,
  0xf30f0af0df020aeeU, 0xf1d021fcfa011700U, 0x3160609ee30fa2bU, 0xf806100e06faf301U,
  0xf80b02fc010dfaf7U, 0xf601fc1005ee08f1U, 0xf5f906c9f4f80bf2U, 0xf3faebf1f9ea0d08U,
  0xee01fde3f4e3ff06U, 0xee1316e008f9e917U, 0x1c020b1200f61203U, 0x40af00efa03f9eaU,
  0xecf10012eb0a01fdU, 0xecf0020cfafa0407U, 0xe3f4f2b6fd010807U, 0xfbf201020b121f15U,
  0xd09f32d1afcf60aU, 0x10f9f4050a1821f1U, 0xfef40f1900040008U, 0x1400fe0afce0fc1aU,
  0xfaff02d70105fff6U, 0xa072a04f0e0e7eaU, 0xbf1f3f80312fdf3U, 0xfd0af8ef0800efd1U,
  0xfe0008f3dc09e81dU, 0xf80cf600f211031eU, 0x50312ef0ff7f6eaU, 0xeaf9f4e10102dde2U,
  0xeaf3da1406f417f1U, 0xee0b01f002e2ef16U, 0xe305b5ed0bf82bf5U, 0xaf007f5fdfd0402U,
  0xe10dc81006dc0ef5U, 0xebeffbf901070cd1U, 0xfaf70cec0a01f504U, 0xf707f90205ef0d9aU,
  0xfaed02e1fd1402f7U, 0x1df8ff10f5e4ebdbU, 0xe6feecedfbdf0be6U, 0x1bfdf1f0f61e0bfeU,
  0x5e9150a02050019U, 0x1318ff0bfbf01402U, 0x1bf01b00cc2febffU, 0x7edf609f7f2f5b5U,
  0xfcf70219e7f91706U, 0xf70304d5fa04f60eU, 0xe00804fa10ec09fdU, 0x150bf008fd06ffe2U,
  0xfaee02f6f8fd080fU, 0x1601fc24f301fbecU, 0x9ea11dbf8fb08f3U, 0xf1d10ed107edf0e3U,
  0x1110cb504f31e01U, 0xe8eaf6f6fbe805e9U, 0xf3ed02dff0f9f914U, 0x1706daf80d140919U,
  0xfcde070bf5060df4U, 0x117ea01ff1ff41fU, 0x1502e01b0bc32209U, 0xf2f9fdf90c190303U,
  0x15ef09de0fd2f50aU, 0xe7f4140c03190608U, 0xf9e41c20cd2efdfcU, 0xde5f9ff080f101cU,
  0xfa0f0d1be923ff0cU, 0xe7a70cd40a140401U, 0xee1e15eddf21fb18U, 0xdf805d7f919fd14U,
  0x14fe0ef4f80304U, 0x60af11df80811e3U, 0xfff1fbf9f7fc0be3U, 0x12e8e90df301e1dfU,
  0x7fcf6fa1beb12f6U, 0xd8e20afdfd0e03ffU, 0xa06f30213050204U, 0xf2ff0108fee2f7f8U,
  0x6ffff02f9130cf8U, 0x9f206f0f7e7f1cdU, 0x7070acbf2ebfc09U, 0x5ef08fdf508180cU,
  0xfdf60afef9e6f808U, 0xe6ffeae5fa0c0307U, 0x10070b07fb0302feU, 0xe51112d7f500f2e2U,
  0xee090be810ef0afcU, 0x1fffe917fe02ffecU, 0xfae8fb0a04010e05U, 0x11cd0ef8f8d4defeU,
  0xe824f708000a2233U, 0xe0d224ef07fd0904U, 0x1c1a011517cf17feU, 0x1030112fc051d0aU,
  0xf50aff09f2eec704U, 0xf00bcfdfd1007fbU, 0x108f10cf9d90a07U, 0xf5f0d0ebf5231010U,
  0x10fff7140edb09f9U, 0x402181ff8f9f70eU, 0xf30609faf3170e03U, 0xfb06040af50a0fdeU,
  0xf41304d5120ffb0cU, 0x15f0eff7f513fed5U, 0xeaf500def4fd080bU, 0xee04fbf0fd0c06dcU,
  0xf0806fc11f0fdf8U, 0x9e909fa0e0ef4ceU, 0x20204f20afb0df6U, 0xd0d03080405f9c2U,
  0x504fce000020603U, 0xfc080b07fcdef1e5U, 0x3f80cf9fe051dfdU, 0xa18f40cf8ecf3d4U,
  0x8f3e3d7fbeb0efdU, 0x6f516ee0c1309e8U, 0x6ff26d90700081bU, 0x103ee0e08df03deU,
  0x3f7f0e90212fffcU, 0xfb0104f20407f3feU, 0xfefbfc1bfef4040dU, 0xfa16ff05f6ff08e4U,
  0xf3f5e5eb0709f3efU, 0xa0009e5f900fa20U, 0x70b080a0ff20af6U, 0xf4f501f8f9fffef4U,
  0x4f408f6fcdbeaf6U, 0x2fa0f030c050edaU, 0xf6df01e108ece6f6U, 0x8fffa20fedaffe4U,
  0x12edfae2f701f4f5U, 0xf6eee4000a08faf0U, 0xef0306e923e306U, 0x24f615fbfd341621U,
  0xf8021e0518f80ee2U, 0xfd0ce80d002401feU, 0x4130515f516ec16U, 0xe02f9eefa0a01a3U,
  0xeb0a14cc0a0110fdU, 0x9fdf4020003eddfU, 0xf102faf000062bfaU, 0xf4ff080107fa04c5U,
  0x12f90ed407f8fff9U, 0x1efdfcf8090d01deU, 0xcff00e91400fd09U, 0x90712140fe602d6U,
  0xff0fece3fe0800f3U, 0xeff8070707f709f1U, 0x110607f705ed01ffU, 0x11f9f7f6f7ecf3edU,
  0xea14f2cdfaf50204U, 0x81913f80c0b0e03U, 0xc2beaf512f300dfU, 0xfd00f6ecf8120cdcU,
  0x1f0afb0010fbf919U, 0xf60df50a0f01f5ecU, 0xf0ea05dcf1ff0401U, 0xd6ee08040f150206U,
  0x13df08f6f811f107U, 0x1206081505f6fbe4U, 0xe7f8ff14f1f7f8fdU, 0x8fffa06080a23faU,
  0x19a7fd13e805e2fbU, 0xec0f05fbf802fbU, 0x1ca00120e7eff0f9U, 0x323f6f4f925051cU,
  0xe2faeb0104f8fefaU, 0xf917fdf500e2ee0eU, 0xed07f7f4d804c7feU, 0x8fcf803ff0e0aebU,
  0xf9ef0feedff0e40eU, 0xf2fd05f902c8f6e7U, 0x7eb1302f12f0500U, 0xffed0503f9ede7feU,
  0xfe00f507e7fcfb01U, 0xe6f4f90200ed00f9U, 0x1afaf61019f2e50cU, 0xcf9e90df5e406d3U,
  0xfbc604f6eff8e3f8U, 0x7d90e06e2f5e9U, 0xf7cefffd09d5e4d1U, 0xdeef1a1dfbf0ed11U,
  0xfc13dcd710d118c1U, 0xa50b40f9040fec10U, 0xf614190ffefc16ffU, 0xd40aef02f70017edU,
  0xf2effbfa0a0ecce8U, 0xe2e00ef207f0081cU, 0xa22e9d4fdfaf224U, 0xe9e10ae00912e420U,
  0xfe12220f21081f16U, 0xfaed01e60b19f31aU, 0x32fb1e1e09f7160dU, 0x2050928f7f903a0U,
  0xd01f5f3120a0ae0U, 0xfffaf912fcf2fff7U, 0xfc01ffeaf904011eU, 0xf2f4f31408ec0dedU,
  0xfa98fde302f00600U, 0xf804fbfb0af40c14U, 0xded04dd0f10ffeeU, 0x211903fb0211f023U,
  0xf80cfb0511ef15f3U, 0x3efe6e907f8f8dcU, 0xe7c90501afdbcdffU, 0x1cece7f7fdfd07c3U,
  0xd109fbf2e804fdeeU, 0xf8f61fed0802f1f5U, 0xfee7070d070efaf4U, 0xf31c12ea02eff60aU,
  0xdc07c1ee14eb11ddU, 0xebeaf5c9faf503faU, 0x5050ef70ff7f8f2U, 0x3f9f405f818fe02U,
  0x9e70512f91317f8U, 0xf7ff18dd0b1004f5U, 0xfdfbd2090bf707fdU, 0xe9ebfad808ecf7e8U,
  0xef07dde2f2f40b02U, 0xf9f1fbdd01ebed05U, 0xd214df0c01f80507U, 0xeff7cdf2fc1bfa09U,
  0x12fc0025de0bcf13U, 0x2d3f6fa03c2e5eeU, 0xd702d5f5d4011ae7U, 0xeff105defccfd8ddU,
  0xfc14e1090ef81304U, 0xc03d2e2000ae906U, 0xfe13091bf905f704U, 0xf70d14fa0518f9e9U,
  0x40111dd0df4e3edU, 0xd9fd10ee0bf401e1U, 0xebfbfdf7050100f4U, 0x1dee0227f7fdff01U,
  0xff130ee222f909U, 0xbf70e0c01f9fee1U, 0x1407feb423fe12feU, 0x11090af308e8e5d5U,
  0x2010de809fa0c05U, 0xfb01dc0c081bfb07U, 0xea080b11d922fb13U, 0xedfffaf7f9f708cfU,
  0x100300d3fbfef1f8U, 0xf3f6ef0409fc01f3U, 0x319f7e600f5ebf6U, 0xfdf805ff0a05081eU,
  0x1310070108f5fcf7U, 0xfb1c0ae8f5010b12U, 0xf5110603e80d06f0U, 0xfa140ef709f40906U,
  0xe70b0a09e618fa07U, 0xf9e6f2e203030700U, 0xd510e2faf20f0015U, 0xb5f325e9f8ed01f6U,
  0xf26bfea210d32e9U, 0xf1e9ffe004f002c1U, 0xfcfa07e00301e8f9U, 0x7f3eae4fc22ebfaU,
  0xf3eced08f6e8030eU, 0xe51405f9fe1a0fbeU, 0x1ceee7d810ee11ebU, 0x1ffdfdfcf80208ceU,
  0x12f4f4e4fd05e5f0U, 0xfdf8050a01f90606U, 0x26d41613fd05e0f8U, 0xe80bf1eb090bf4f8U,
  0xe21ef401e111f2fcU, 0xcfe1f5efffe00014U, 0xd7010914f1e91c07U, 0xaf5feee07f10702U,
  0xefd4290201eee800U, 0x1e02ed14fcfde5ffU, 0xeb2404030900060bU, 0xebfce7f60ee0f2bbU,
  0x130eefe1fee9fef7U, 0x120309130009fc0aU, 0xfdeb0a0b000acd06U, 0x626e80f07fded06U,
  0x1f1080afaf6f90cU, 0x1a0cf7f10115030aU, 0xdfc011006010305U, 0x80703f2fd07efe9U,
  0xe7fbfded0102f801U, 0xebfd0618fffd0b1fU, 0x25efecf811f0f6efU, 0xb02fa01fe1cfb27U,
  0xf50416fef4eb07U, 0xf0eefaf9f8e81b10U, 0x14fa0703fcea03U, 0xf114e4fcfbf013f8U,
  0xfdfcfce2f6ebc4f4U, 0xe112ffea0f20031dU, 0xef13fe03fa0ab310U, 0x6f408faf4ecf9feU,
  0xfbf902fafafe12fcU, 0x1ef13ff04e7f0e7U, 0x5fa09d6fd1403fbU, 0xef1016f8060af616U,
  0xfa0c17092aff02fbU, 0xd516f9f0fff3f806U, 0xf907001df8f8ec07U, 0xd3002816fa100927U,
  0x1eff18f3ff18bcfcU, 0x4f4f9000909e42cU, 0x110bf730faf5f7ebU, 0xe1f920fb0a0a0112U,
  0xe50ffa03fb090608U, 0xebe1fafff6fbf0f1U, 0xfada09defb04d6faU, 0x15050df7f8f3e4f2U,
  0x5fa02f4ebfbfde5U, 0xfa06fff407050006U, 0xeffe6fd0bf410f7U, 0xfd06dff4f21516f5U,
  0xffd0fc07e717d30bU, 0x14fef7150cdd02e3U, 0xfcfc0ad6ed0d0601U, 0xff20afbfc04fbU,
  0xe700faf30900e3f8U, 0x4070ae6f3f4f510U, 0x903fc04edf90109U, 0x514e9ebf405e206U,
  0xf400f6e4fbe71afcU, 0x1af51ffefef2fdfeU, 0xfdee0ae7e60f0202U, 0xfc0c0dfbf810fa11U,
  0xf714fcfd1dea1802U, 0x23d8fd0442e911U, 0xf3fafd0e31ea0d03U, 0xff08080d0706000aU,
  0xfdf3ff0c04eeff04U, 0xe40c03f204fd09faU, 0xff90d0bee0ee4f4U, 0xf9dd190c0800ff04U,
  0x16f608f5e709d8f6U, 0xf5d7030dfaf005f2U, 0xe60113be01ed12f8U, 0xf6ecfaf309f8070dU,
  0x40101e7faddfaf5U, 0x2810f8f8020ef7ffU, 0xf0faee1006f8020dU, 0xafbfe04f9f0f4fcU,
  0xf3fa0fc5f0f50807U, 0xfadcfb070313f826U, 0xb18fc23011716f7U, 0xf7fd10dcfa2ffafaU,
  0x9fc112a042d0310U, 0xf309ee1703fcfec0U, 0xfa04fc0202fb0301U, 0xfe03fe13020011efU,
  0xdfff7e618f5fdf6U, 0xfaf5ed0202e60dddU, 0x2ffeee9031be411U, 0x17040b0200061f0cU,
  0x13fe02071004f2f7U, 0xa9defbcefbeffe19U, 0x1190516020d100cU, 0xf8faf9ee0a11fa03U,
  0x3fb090d0b0c1601U, 0x4f1010503f80a20U, 0xc60ad51000fc0802U, 0xafac12fcfbc7bb0cU,
  0xcd1381f6d7c64bf6U, 0xeff204ad0302fa0aU, 0xf20fbcf60cda30e2U, 0xa07f2fc0c0e0a09U,
  0x1908010ff403f921U, 0xf3f0e7e40a1bf809U, 0x40cf10af09e4a1dU, 0xfef030df714fcf7U,
  0xf1f5fb07f8ef1ff3U, 0x1e6f6fd06fa0405U, 0xff30c0fedf7d802U, 0x11f10f03f8dd0de8U,
  0x60f06c609fd0208U, 0x2207ee00fbf703f7U, 0xf318fefa0bf215f4U, 0xf008e4f007f001fdU,
  0x2e1f3eeccea9bfcU, 0xe218e90aff070be1U, 0xce305e20a06e40fU, 0xa904001c01252afdU,
  0x4fc0d08011aed29U, 0xfffe0cf0f3f9fcf1U, 0xea0614d5faf7e1f2U, 0xfe1113f807fe0cd6U,
  0xf50a02c9ed05fa02U, 0x3faf4f406deeef9U, 0xdfffff4f00ef3ecU, 0xf5071115fffbfbc9U,
  0x3fdeff6fcf30418U, 0x1ce0020a08f40426U, 0x270bfbf91ddf15f0U, 0xebf3cadcfff4ed06U,
  0xaeceaf00ce9f9e2U, 0x30e11fc070805ebU, 0x1610f813f909f8U, 0x4111001f912f92eU,
  0x1b13fd152c07e7U, 0xc800cad302e0d1feU, 0xca080500a8070200U, 0x4ec15e4fffffef4U,
  0x17150bf90313000cU, 0xf7f301ff0b01f624U, 0xed15fd0e15e516d8U, 0xecede6dffbecd30dU,
  0xf2e4f416aff8ec02U, 0xe6f4101500fde81cU, 0x80ae9fb14fd140aU, 0x1513e5eafd0aedf9U,
  0x1ec6f420f1f504ffU, 0x1cfbe0fafa21f40eU, 0xf9dbf4f6f708e7fbU, 0xeeebfd0e060bfd14U,
  0x1bce1103e9fdc9f2U, 0x14fce8e8fa05fd01U, 0xbc30205d00fdffbU, 0x9fc1906f924f41fU,
  0xe7e7e618e92be7f2U, 0x6f4040cfc1ef212U, 0xf804fc04020dfa14U, 0xf1ed1d14fc02d40eU,
  0xf40bf60ddc16fcfbU, 0xdb0f0ff706d90105U, 0xf8fb0bf0fafef8f0U, 0xe60e01ecf5ff050aU,
  0x2104fd180dfcf0feU, 0xf603160bf50af907U, 0xf41bc4090517f2fcU, 0xfaee07db05020ff7U,
  0xf2fb1624f6e20104U, 0xc04f4e6f6050dceU, 0xf4e906ee0a010602U, 0xfcfb0d1dfbf6f4e1U,
  0xfe0fbae50219fa09U, 0xffb02e0f5fffbe9U, 0x109f3ed16ebf6fdU, 0x6fa01f00bfd0bd5U,
  0x91700cd01f9f904U, 0xf80beaf802140306U, 0x3f9100ff105ff10U, 0x516f3100a07f404U,
  0xf6f8f6f10407ff02U, 0xf10e72c0110111dU, 0x2aea271d02fbf3f8U, 0xe1c0eaf7f9ecfae0U,
  0xec150af8f6ec1aedU, 0xf1d7f3b8041cec18U, 0xf4021a0410f3031eU, 0xede701fafd0b0b15U,
  0x17e30f19fa15dffeU, 0x1c9cd13f704cf1dU, 0x317af0becea1802U, 0xedf5e8d805f1ec1dU,
  0x120f05fa09bdfbf2U, 0xf3eb1d090ef4e101U, 0x613f5faee0806f3U, 0xeef5e8eefd1cfd14U,
  0x14051d1cf8f508f3U, 0xf606f8f5031a0b06U, 0xff061c08f70bed01U, 0xeefe0204fdfefd0dU,
  0x22090df8e407fa05U, 0x10f7ef18f80ffc07U, 0x1bef03280afb00f4U, 0xfff207ff0203f9d8U,
  0xd00faeb07fdf500U, 0x408edef0c1af8ffU, 0xfcfced0bffeaf505U, 0x300ebfc030dff21U,
  0x10fa003bfc04e610U, 0xb00fbfef9f801f3U, 0xafff207f50102f5U, 0x1409e9fbf8f9ea01U,
  0xe7f9f506040702f2U, 0x7f01cf006210124U, 0xf0fa062a0cfbff05U, 0x403fe05f7f6fdf1U,
  0x5020900fe0408f8U, 0xd0d02fc0502fceeU, 0x100f9e9ee0bed05U, 0xf5ed04ef10fbf413U,
  0x1018fc19f2f2e5edU, 0xe909f0e50b0300f7U, 0x421f911fcf5e104U, 0xfc01170cf8fb0dfbU,
  0xff0513f6090fe0f9U, 0x4f2f707020dee25U, 0xcfefd16fc14f5f9U, 0x130b0aff06f7e701U,
  0x103131313211d02U, 0xff0405f3f80b08f1U, 0x20b06de15e6fefaU, 0xeaeaeffeff0ff110U,
  0xf908fd0efaf9f60eU, 0xf9f7f9fc040f01fdU, 0xed110209f7e70203U, 0xd0dcfbe50bfcf10dU,
  0xf70ff000fef71216U, 0xd5e0ffd308f6e802U, 0xfc1dcb0303092dfdU, 0x171bf4f6f3010401U,
  0x9f410ff0c10ff0aU, 0xfde6eef902cdce06U, 0xa904d415eecb2befU, 0xe2ee03d4f8f9e1feU,
  0xdb17b8f7f5c947d7U, 0xff0b19d1f9140e11U, 0x3ff030211020808U, 0x812e4f8fb0c0811U,
  0x17f90e0dfcec0b09U, 0x90df815f616110cU, 0xf3fe060bfee114fcU, 0x10e0602f90a01U,
  0x9110cfb0203f300U, 0xfff90c0106040010U, 0x1eee0a000cfd0102U, 0x3cf3080c0b03f5f8U,
  0x3f9071adb1a0103U, 0xefeb061808ec0116U, 0x14041302f81614f1U, 0xf7f0fc0400f60aeeU,
  0xf90400e7f4f303f3U, 0x8faec0f08e400deU, 0xe90dfbfbec05fd0bU, 0x5f1e6f5fb05e7f1U,
  0xfe01fcddf3fe150aU, 0xfd0826f90411fcedU, 0x20112d909e70e03U, 0xec0ae50f0cdef6d6U,
  0xf8f1f509e51a1016U, 0xf71c0105fe01f6ebU, 0xff01facbfd01ffecU, 0xefdee14fcf7f701U,
  0x10f90f131411fa04U, 0xf6010e200deff6d5U, 0xf101faebf40d02f8U, 0xfdf2f4ea04060a16U,
  0xfb0d06f907f00313U, 0xf9f4f6f1effcfa23U, 0xfc04f5050ee8f600U, 0xf00c01f2f01efc46U,
  0xf501fc2111fbf609U, 0xfb09ebfefceb061eU, 0xffeb08f318fe10fbU, 0x5ea10dd090af80bU,
  0xee0debe908e21eeaU, 0xfe0403e0001e060dU, 0xefe9100df7140b12U, 0xfd05f216fef90ae8U,
  0xf6f503e8fe0506fcU, 0xf40c0de1ff0f05feU, 0xf70b07ebef00f205U, 0xe1fb0ddd07fdf629U,
  0xfdfebc15efeefaebU, 0xfd0913f1fa0bf313U, 0xf30ffc19f81c13feU, 0x15f50be4f5f7fa07U,
  0xebefd9e4010004f0U, 0xfd0413ecf6d5fb0bU, 0xca12b6ede9022cfdU, 0xe0fa05ad0610d70eU,
  0xfd13ed0c18dcfbfcU, 0xfffd070cff120d08U, 0x9ef0a07021ef906U, 0x4ede40ff8081e12U,
  0xaed1a18fb05e909U, 0xfffde9f701142202U, 0x11f5e9fc0ff6e7f6U, 0x2c00000044U,
  0x620000015dU, 0xffffffc9ffffffb8U, 0x6900000245U, 0x3e00000007fU,
  0x270fffffe78U, 0x66ffffff6aU, 0xfffffdc6000001a8U, 0xffffff6bffffff57U,
  0xfffffe6fffffff39U, 0xaa000001cbU, 0xfffffed60000009eU, 0xffffff83ffffffddU,
  0xfffffe99fffffe9dU, 0x21b000001c2U, 0xfffffeaaffffff5fU, 0x1fafcdafa0604f6U,
  0x9e90301f0f50e05U, 0xfbffedde00ff09ffU, 0x70ded091610161cU, 0xf4d900f923fa15fcU,
  0xc060bcdf1d40701U, 0xf9fff8de02f9040bU, 0xf9000c0ff7fe05faU, 0xfc0200050dec0005U,
  0xfbfdfdf2120ef2fdU, 0xe9fb04ec0110fb06U, 0x3f8fc07010009ffU, 0x13d315fbe9020d15U,
  0xfd061af6f4eb0cb4U, 0x1320d4f11011f9e8U, 0xb0d01080b1701f5U, 0xcd5f8f5e4120e0cU,
  0xef040313fffa01deU, 0x802f9cedbee0eecU, 0xa0304e1ee11fb02U, 0xf7ffe5fce817fc03U,
  0xe715f90a060f0102U, 0xbfa06e2f80604fdU, 0x40108d103fdf4edU, 0xfebdfe07fafe09f8U,
  0xc111f0818f5f2dbU, 0x6e6ffffffefebf4U, 0x8fefa100a0f0606U, 0x3f00ff7dc030301U,
  0xe81505f8ff000ae1U, 0xf5e9f3fafe0812f8U, 0xf8faebf9eafcfd05U, 0xfe110af3fd06fef6U,
  0xfd01fbfcf9fbf806U, 0xfc06f20a06071404U, 0x14fb0201f70af4f9U, 0xfc07f4f6ec11ffefU,
  0xafdf4210102f310U, 0x5f0020602ef08eeU, 0xeb0dfefcf1fbfef5U, 0x2f8fedcf7e30c00U,
  0xd9fafbff090201f1U, 0x4fb06a6f7f10508U, 0xdce90706f2d0f6f3U, 0xe002cefaf4e4fa0eU,
  0xfea2eb1afc1110daU, 0x16040dd41c080308U, 0xf1f1fcda08f311f7U, 0xd0516f10e12ef07U,
  0x6f804e9ee040407U, 0xfd0ef208f0f70312U, 0xa06f205fdfc0907U, 0x170e0be20024eb0cU,
  0xebf9f2d0fb150cf0U, 0xff03fbc1f2dee8fcU, 0xc7fa0a0a040bf7f8U, 0xf7f7b706f00903edU,
  0xfafb0c08eee409eaU, 0xf03f200ea1e1209U, 0x3fd11cef7f0fb01U, 0xffec05fd020513f5U,
  0xfaebff0105ed0e0fU, 0xee8ff05fb03f711U, 0x7f7fb0307fde6f9U, 0x35200ce21303fc03U,
  0xf512f7f9fc011702U, 0x304eec41e01ddedU, 0xd708e2000d18d5ebU, 0xdff5d4fbfd0afdefU,
  0x4d5070101f9d8U, 0xfbf40906e50b07efU, 0xf4082bddfff9f2f9U, 0xf90a0bf802fb0a02U,
  0xf3070bfef50fff18U, 0xed0efe1804d3e6f2U, 0xf701f21aef05f4f3U, 0xaf5eb0f1003f1U,
  0xea0ae8050f0cf2ffU, 0xd7ecf30306060cfbU, 0x514f91105f308eaU, 0xed05fe08fbfef0eaU,
  0xfefffd0c1bf8eb02U, 0xf0fafcf51314f002U, 0x12f5170ff8f61efaU, 0xf704f5ebe21105f5U,
  0x5e702fbcfe7f7f0U, 0xd70ee907f8feebd7U, 0x90df6f7f1f8f109U, 0xdf9f5f9fde5f0eeU,
  0x5f2efefeeeffaU, 0xe4eafc0c02f70cf6U, 0xdfdf40905000203U, 0x2bfc07f2f7f304ebU,
  0xfa10f206f703e8fbU, 0xe110ebf5fbf70714U, 0xee04f20efe06fdffU, 0xfa04f6fef9140113U,
  0xf7def2ef07fa0501U, 0x4fcfbb1fb08fef6U, 0xf40d0ba50d08fedeU, 0x11f2cff1fffe1709U,
  0xddff50f14f6020aU, 0xbcdf2ba06181415U, 0x31606da03eaf8f6U, 0x15ececcdfcf806feU,
  0x4daecfc14ef11ebU, 0x10102c007100e1aU, 0xeb0cf5ec120df9f9U, 0xef3fef4e80cfc01U,
  0xe42008e101defbefU, 0xffe90b08fdec0a12U, 0xb11ee070400f208U, 0x2000305f9cffaffU,
  0xf8fd0503e9e805fcU, 0x509f488eaf50d08U, 0xe5f70bd5f80a07f5U, 0xf909fd0ef5de0df5U,
  0x120a000bfc05e916U, 0x1f3f618f5fd06efU, 0x9060df2f6f30b10U, 0x4090c01f516e20bU,
  0xf715f3f4f1f108fcU, 0xeef8fa0ef9eafdf8U, 0xe0bfd17f3000f18U, 0xf907fef40b07f7fbU,
  0xe302efedf1e0faf8U, 0xe60c059ce6060319U, 0xc1f100ebfff2f2e1U, 0x702fbf81202eae9U,
  0x3f602ef050f0d14U, 0xd08f405fb14ee0fU, 0x705e6d2fb0febf5U, 0x10000913ef110803U,
  0xf9d8f9ecfdf5f0ffU, 0xf713ec01030902e4U, 0x701000e060606fbU, 0x1a1116060d010c07U,
  0xf5d801f711ef01feU, 0x518f2db0f11d4faU, 0xfd07fafc0515f600U, 0xfef304010efff3faU,
  0x2aebfbe9e7f7fdfdU, 0x70707f4250bf6fdU, 0xd1007db160ffa0eU, 0x805f80510f2010aU,
  0xdfc03fcfef5f50dU, 0xfb11070b150508f0U, 0xfce708fdfb0303f1U, 0x6110a0e0711f5f8U,
  0xf00ffe5ff0e0bf7U, 0xf0f90dfbf507ecfaU, 0x5ebf10102f702f6U, 0x3f5fdf7fb09fff9U,
  0x7f0f80909e6fe0aU, 0xcafdfc00f3fcf0ffU, 0x6f4fe0000ea0bfbU, 0xfb00f908feeef5f7U,
  0x11031c0bf109ff00U, 0xfbfaf3060efbf2deU, 0xe07fbeaf6ed1109U, 0xf60a13f2ff09fefaU,
  0xf61608eefef90001U, 0xdafb0e0008e1fdfbU, 0xfbf0080104d6fdf6U, 0x80b11000bfd1b04U,
  0xa0313ed070ae405U, 0xf705ebfa1803fee4U, 0x16e7160710f0fe08U, 0x2e49ffac61b1106U,
  0xf1ecfc0bfd150bf5U, 0x1113fcd5cc040522U, 0xf10c11cdf7130fffU, 0x307bf1ad4f0f9fbU,
  0xdcfefe02f91bfb12U, 0xf60307c3feffefffU, 0xfefffff7e6dd0af5U, 0x701cd0c0ae0fce6U,
  0xfff7f2fc190a0e08U, 0xed092cddfe0def08U, 0xf416fe08f104fb0eU, 0xf6edfbfaf8f5fcf4U,
  0xf9fcf902fe0704fbU, 0xf5f000fb020ff00aU, 0xef9f9fb06fdff14U, 0x18f304ecf4effc02U,
  0x1e9f5f8e9f4f507U, 0xf504f0010208f9faU, 0xfe07e903000009ffU, 0x5da00dbff010af8U,
  0x40df2fef818ed01U, 0x90ffbffe4fc0a07U, 0xf807f0f6010bd706U, 0xf5021409180b0611U,
  0xe0e1f3f3fef3eeeeU, 0xc06fe010d19f4fdU, 0xf5fdf7ff0906f403U, 0xfbdc0ae9eeeb02fcU,
  0xf7e7ea2000f316f2U, 0xfa18fee70a1bde02U, 0xeb08ecf7130f01f7U, 0xe9c10efd09f809eeU,
  0xee4e1040fe320f4U, 0x1f60909ff1cf010U, 0x280000eded0ff800U, 0x1102f80e03f1ff14U,
  0x2f6f7e4010ef1eaU, 0xf61512070cfdec02U, 0xf3030efc02091705U, 0xe7f30a0ed904ec09U,
  0xfefdfd01f0ff0ae9U, 0x10e0e081601000bU, 0xf101050d0b01e315U, 0x7f50cff10df1001U,
  0x1f6e8e4f80c11eaU, 0x10f4040718f6ff08U, 0xcfdf910000e07ffU, 0xedef01e4090e0201U,
  0x5ebf3fb130afdf9U, 0xd1fb0219f5f60df9U, 0xf901f112ebe317fdU, 0xd8040b00e917f003U,
  0xf8f7df02f7ecf1ecU, 0xf81e02fef405fffbU, 0xfd04fb0bf0ee01f6U, 0x11edf1080607080dU,
  0x7e1ffe805fee8edU, 0xd9eceffe0a0df710U, 0x1e81609f51524f2U, 0x108faeaeb2506fbU,
  0xf323050af5f0ea05U, 0xd7f60afff3e0e7faU, 0xfa0af3f503e40b03U, 0xff14fcfee004fd0aU,
  0xf20201231a13f410U, 0xe30b020cf6f3f8d7U, 0xfeed0c0e03f20bf4U, 0xf6f810fffdead8fcU,
  0xf90e0ef61c1ccf0dU, 0xe8f9ef07180c0c0bU, 0x41904110bfc2003U, 0xcfd06dff8080a02U,
  0x510f40710140df4U, 0xf5eff90bee0903f1U, 0xfe11fa1203001f0aU, 0x2e807f80f13faeeU,
  0x1ec02ff09f6fe05U, 0xe3fafe06f40012f0U, 0x40507010c0726feU, 0xf6080a040becece1U,
  0xe303020cf702eb07U, 0xd1ebeff8010d0b05U, 0xff16f80502081b0cU, 0x108fdfaec16061aU,
  0xced404f9e0f30bd3U, 0xe1500b9fef00bf3U, 0xbff41d050d0203e5U, 0x1a01dc12e5faff05U,
  0x11f30afc15f20b0aU, 0x51c00fbf503f212U, 0xfafb11d5f1e5f8ffU, 0xed09ea11ede5edfdU,
  0xb21f7080f0a1f00U, 0x1f0afffe0613fc08U, 0x2fcffedf603e708U, 0x2fdf7e9f5fcf4efU,
  0xebcbf2ff00050aceU, 0xc1710eaf4e802fcU, 0xf913fbda0812f7faU, 0x407e8eac40df6faU,
  0x90811eb0cfaf8f9U, 0x4faf7070c00ec08U, 0x120604e4f901dcf4U, 0x110906e7e7e9f916U,
  0xcfa11f4f6e802f3U, 0xff0c130a0ee10d0bU, 0xfef506f006f5f105U, 0xfe1b06f00209fcf8U,
  0xfbfd0606fe030fafU, 0xff14fc040aec06fbU, 0xf21bf0db1119feeaU, 0x2f2f906f52709feU,
  0x9f822fcf213f5fdU, 0xf8f2f6050407f9eeU, 0x1ae7f606d8eef4f2U, 0x309fc0af8e806faU,
  0xfffdfcfbf908f80dU, 0x3f30bf7fae9faefU, 0x1ee08fef2ce0b0cU, 0x1fd0afafa080c0bU,
  0xb0506f7fbf9fdf8U, 0xf2d6edf306f30a05U, 0xfe000110fe09f4fdU, 0xe7020801f4e70df5U,
  0xe0fff2040df3f7f5U, 0x3e5f0f9faf614f7U, 0x30f0115f60cfa13U, 0x3f9f4f81306f907U,
  0x1c10060eebff14f7U, 0xbe6f0e7f010ddU, 0xeddfae50b01f3fdU, 0xfbf9f1f9cdf0f0feU,
  0x80107f5eccce808U, 0xfcfc09f3f2040df1U, 0xf8eef00ef507ea03U, 0xfcd7fbf8d3f916f1U,
  0xafef20cfe02e9f3U, 0xf1fcfb070907050aU, 0x10f8090ff3f3d10aU, 0x1207f0f7f6f6d9faU,
  0xfec8e1fcf036fc06U, 0xee15e5d500fdfa0aU, 0xf6d8e8e0fc0e18d3U, 0x30f0f0d0f02f203U,
  0x80d1715f6f5fc10U, 0xe218ecfee6fb02e2U, 0xeb05feed0de9e8f4U, 0x2e5f0fbfef71f00U,
  0xfbe7e90c0e30f901U, 0x6f804fece06ff25U, 0xe7f906f4f2d7f0e5U, 0x12fdfa00f501ead0U,
  0x18f4ed23e838dffaU, 0xf43cfeda00f7ee29U, 0xd1fce2e3050310c8U, 0x15fffa0b0408ea08U,
  0x417ed0df828d711U, 0x10f706050607141aU, 0xd00050309effa09U, 0xfcf902e2f1d501U,
  0xee16fb0805fff801U, 0xda35110eff1d1f21U, 0x2306f71110f6e226U, 0xa0cf610f4f80a06U,
  0xe5080be6e6f6e8fbU, 0xffe4d1fcee020704U, 0xef80bf701f9ef03U, 0xfe0800020708ea07U,
  0xebfdddfbf9dff904U, 0x1af602f2f3edff08U, 0xdaf0f00eebe7e2efU, 0xfef1edf2ec05eaeaU,
  0xfdf9fb131dfc0bf8U, 0xf81903f9ff13f301U, 0x10feb0bfde90c12U, 0x15fa0b0ef808fdffU,
  0xfc00f803f02de203U, 0xfcf8ff10e8fa06f9U, 0xead2fcf9f2d3db03U, 0x2f608ecf3f7e8f9U,
  0xfa13e0dc02d9ebf1U, 0xe10eebf4f1eefbf9U, 0xec0301f0f2fa0ef4U, 0xf908f6f5fe180809U,
  0xf4efecfd17f60be9U, 0xb2018f107fd1815U, 0xdb09f9f8e7ecf6e5U, 0xfffa03f5ebfdf3fbU,
  0xb00120515f40303U, 0xef507fd1204fe16U, 0xe5fbf5f3f3f708e9U, 0x30a02f80d17d1fcU,
  0xfe081bedf411f010U, 0x7fde8f70afffef9U, 0xe07ed00fffd10fcU, 0xfafbff04f5fad5efU,
  0xf602f70b05fd00fbU, 0xf403fcca02060c12U, 0xf802fc13fde815fcU, 0xd404e519f5f8f5f5U,
  0xc02ee120a0618ecU, 0xfe25fdcb0f18ed0bU, 0xf0fd02fefb0efe07U, 0x15f503cd0512310fU,
  0xee06fd36f903150cU, 0xeef203e804e9f3f7U, 0xdefe0aeefc0fdf0eU, 0xfafa03caddfd1a01U,
  0xf8fcfd0df6e40b04U, 0x303fcfee7e1fef7U, 0xf80f0dc00e0ce901U, 0x817f8e7ede9fa1cU,
  0x5fb17f4f811f9ffU, 0xef9091605e30b16U, 0xefe8decb21f9ed06U, 0xd0a040efe1bf306U,
  0xfc080409f70cfaf5U, 0xfc1a07fcfaefdfeeU, 0xd7feee0b0c0af104U, 0xfcf8f4f8f00c0502U,
  0x100703f605fb0b08U, 0xfef301fa02f904e7U, 0xfe0b06f40702fc07U, 0xfcf70bfce611fc09U,
  0xf31415feff01f708U, 0xfaf8f201fbee1a0eU, 0x9010205ece904ecU, 0xcfbf7f4f101f0ffU,
  0xf9f9fdf4f9f30406U, 0xf3f6eaff05ff1711U, 0x909f9fc04f6fa01U, 0x70501ed1215fdfbU,
  0xc10e0d9fc06f4U, 0xece02d108f2fe00U, 0xe7fb0adf0d0be3f4U, 0x101ccf6f9f30e03U,
  0xfcc401edfaf8f9fbU, 0xffd112eef2f6ffefU, 0xfc0bf7e0e70f0d0bU, 0x50c050207f1eb11U,
  0xfb0a07fafbeefe0cU, 0x209ff0dfdf3fcf6U, 0x9f2060601f1e203U, 0xeff3f6defc15050dU,
  0xd70402f3fa2cff02U, 0xecf0fbf8ebf5d816U, 0x6ee0a09e7eafbf2U, 0xfc10f7fafe07fff1U,
  0xd0f9e716ea202501U, 0xcf0a0a9d00faea0eU, 0xbf0ef6dafc00c8c7U, 0xff0707f8e8070102U,
  0x3f9f90f1f0400e9U, 0xef090e0cf704fc0bU, 0xfb02020e06faf604U, 0xf7f0ec0ceaf9f8f3U,
  0xec10f1140d0ad71cU, 0xe2df0b11fd12bc1cU, 0x180dfc1514f22116U, 0x3201efa0df0060dU,
  0xdc0bfdeef7fb0affU, 0xe6f700f1ef0804f4U, 0xf611ddf91406f9ffU, 0xfdf70604f70f0807U,
  0x1ed80608fae407ecU, 0xf12f7f105fd2006U, 0xb0b0feb1112280bU, 0x10070701f8ff0bf8U,
  0xf0f6f80411e8e7f6U, 0xfed001cd5e9def2U, 0xbfdfadefe021bf1U, 0x3fb03f70ff707ebU,
  0xfbfd0cfc1002e1faU, 0xf1d60604e1ede6fbU, 0xebea00f5cfe629f9U, 0xefeae0fdfae50201U,
  0x8cd0bf5f5d2ff00U, 0xf503e0da04fc0c00U, 0xe71b08c9080d2401U, 0xfb040a0ae7fff3U,
  0xf080f090ccdfe03U, 0xfef5fd19db07d0eaU, 0xa13f9f4030e2403U, 0x8fe17f9f909f2edU,
  0xed0be704effddeedU, 0xf507ea0fd8f2edf7U, 0xf404f50cff01ed02U, 0xfdf003e708f90b07U,
  0xffff09f8fbd4fcffU, 0x8d306a7ff05f90dU, 0xf811f7defffd0decU, 0x101eaf1f805f9f8U,
  0x14f7e81007f2010cU, 0x11060cd10512d502U, 0xfc0ef7d60f061107U, 0xf9f1f1e4fafaf7fcU,
  0xb0eeff110f2f508U, 0xefbf90800fef0ffU, 0x2130609f814ff18U, 0xfdf5f407d408f20cU,
  0xf9f7010df700e807U, 0x3e403080f090500U, 0xd0af807ecfaef03U, 0x4ff060aed14f6f7U,
  0xe31cf9de02ccfb00U, 0xe423f81ef814eb02U, 0x17f1eb09f2efe202U, 0xf5fce0e1e3101c17U,
  0x7f0eff80cfc02f0U, 0x5ee04f8dcf0f506U, 0xfbee0ff307f20effU, 0x10140314eb0a0a12U,
  0xf1ee11ec04ec0602U, 0xfde508fa04f3dc0aU, 0xf2070df3f505f707U, 0xf1f40603cc15eb0aU,
  0xd31204f40e1408fbU, 0x1309ee14e50edeeeU, 0xf9fbf702f4d6ff0aU, 0xf9d809d701f8f9U,
  0xff11f3f118dd17eaU, 0xbf2fc020410f1e6U, 0x13e703eb1ce10ce9U, 0x141808071512f2f9U,
  0x60c0601e80700feU, 0x11060402e4f514d9U, 0xfd00ec03070a0107U, 0x9d015e3f814f3fcU,
  0xfaf7110dfb07fdedU, 0x407ea10c816f116U, 0xf0afa101814f801U, 0x22f0f9ee1905dfe9U,
  0xfbdb0901e6160eeaU, 0xb131805e8eed4e3U, 0x1cefd5041109e1e2U, 0xf8f4f805f1f0e401U,
  0xf2f1f704f3170af9U, 0xecf7f702fef31f09U, 0x80cf90bebf5110cU, 0xebdd00eeeb1ae9f4U,
  0x4f6fa26eee606dfU, 0xfa14eef101fc02f7U, 0xf80017fc000cfff9U, 0xfee3f407fb02090dU,
  0xafafdfc31dfe4edU, 0xe9faf8f7fb08feU, 0xacf0e06e7f50602U, 0xebf508efea00ecf9U,
  0xf4edef1108fd03faU, 0x9f104070f05fbedU, 0xee01f3000efdfdf9U, 0xeeee0afdf4d807f5U,
  0x7f8e2f1f9e408c9U, 0xf808fdf520f0faf9U, 0xe31cfc010e2008dcU, 0x15e70700efef2407U,
  0xfd10f007dc0e0aU, 0x50000f20e0709feU, 0xebf907fc0afa0beaU, 0x1bffff0e0903dff7U,
  0xfbf6fbfb020401feU, 0xf20cf807f3e512ffU, 0xe90a070e00060105U, 0xa03fc0d02060407U,
  0x10e03f307e7fec6U, 0x1f050707f10f0104U, 0xf1140f070420f417U, 0x1aedf2100210f9fcU,
  0x5ec07f9f60801dfU, 0xefe00d8060e03U, 0xf30a07fc05050e00U, 0x415fafe09140408U,
  0x7f910f4fcfa09f5U, 0x1cdf12090d070becU, 0xf8f90c0ce7f30902U, 0xf70dfa13fc08fcfeU,
  0x110202f3f3f70008U, 0x6f700050506eefaU, 0xd220e03ffd8f705U, 0x202fb05f8fb0cf9U,
  0xf50af0e5faf8fa01U, 0xef0400fefefee9deU, 0x12f9f60bf9f709faU, 0xf8f0c0fbe913f901U,
  0xe9e2fe04f40900f9U, 0xf4010205fbfdeb08U, 0xf80a0304ed14eef0U, 0x2e5fece0d0400U,
  0xe9e8fe16ee19f903U, 0xed000cf8f905e4e9U, 0xf204f803e9efe202U, 0xeff3c915f0fff1eaU,
  0xc9d6e602fe0020fcU, 0xe9fa30c70919e1fdU, 0xe615fcf9d1f007ecU, 0x3eaefd8fa0a0918U,
  0xea0c1601fae31711U, 0x80e050d02f4fe12U, 0xf5ee03dd05e9d3f8U, 0xfa0dfffe050816fdU,
  0xdf3eef6f50518e9U, 0x1edfd06f0d70711U, 0xfe0a03e01307ed16U, 0xf10e8f6fefae0fdU,
  0xf509ff0a0c0702ffU, 0xf1fef1fcf5c6f505U, 0xe8ebf6eb0703ddf9U, 0xf40a0004100bf008U,
  0x40007e300d811faU, 0x140603ff0bff0efdU, 0xf6fa00fef7ec0e06U, 0xf50f050600040105U,
  0x4fcfdff16de1cf7U, 0xf8d8f105e80af111U, 0xfbf3fe02faefcef6U, 0xf03fffefc030ffcU,
  0xfdf8030cfb06ffU, 0xd1f8fe00ef00f50eU, 0xfa0a07fcf7f8f10bU, 0xfbf1a010c21609f3U,
  0x4db0513000b0402U, 0xff1c15c9ecfddcf0U, 0xa1f01c200111505U, 0x40ace10ec0aedfeU,
  0xfd0fa1b150309fbU, 0xfbeeeea0d50ad307U, 0xebfd06f50ad410e7U, 0xe0bc70bee0f0dc1U,
  0xfdc108132d171e0eU, 0x307cab2e827f208U, 0x131fe2fd0bf7f4fbU, 0xfe020bddf6061019U,
  0x3141a0af41001fbU, 0xf0feef10f7ef16faU, 0xfff4fbeffffaf607U, 0x10621bdfdf4fb09U,
  0xf50200fef0edf90aU, 0x11def5180c0506f9U, 0xedf40a0100e6e6f2U, 0xf0f225c20002f131U,
  0xd5f7ea0deff7ee21U, 0xf9ea150413fff0feU, 0x3f9dce8f5f6e1f7U, 0x1101f5f3e508fc0eU,
  0xf6fafb17f6fbf0f7U, 0x140cfc09f8d9fb03U, 0x1e40806ef0010ffU, 0xfdf803f30af1f8fbU,
  0xfc07f80cffe1b30fU, 0xd2ede30209eef0f9U, 0xf5180311ee1c1900U, 0x7f5140125f41bd4U,
  0xe7e3e8d0f3e110U, 0xfef8ddea10141e09U, 0xfa11040c09070803U, 0x306f1ffe7ff04e6U,
  0xa0915fcf7f60dfeU, 0xecf4e712f0090eebU, 0x110bfa0c11fd07f6U, 0xe9fd0a0502e60cdaU,
  0xf30b01e50521e8f7U, 0xd0fdfddb0c1af4e1U, 0xd07fe19f1eb0813U, 0xedff151805ebefebU,
  0xddbcef906eef5ffU, 0xfb25f7a20d23f4fcU, 0xf2f70bf9f504f8f4U, 0x81300f10f16fc07U,
  0xfe00ffeef924fd06U, 0x806ecdc0909dffaU, 0xd01fefb050a14f1U, 0x50d04dde8f6fcfbU,
  0xe9f7010b16f6fc01U, 0xf3e514b3f9e703f3U, 0xeb10fbf8fe10000eU, 0xf909f4fde6fb0a18U,
  0xfdef19fe01faff10U, 0x5f726170ef4010fU, 0x1ec03a900fafd01U, 0xc8fa05f7110efd02U,
  0x14fb1114ea0716f6U, 0xfbfcfef704f50cf3U, 0xe1040afb050605eeU, 0xf5f4edee16fd201cU,
  0x8eefa0e21ff0414U, 0xf4fa13f6f0dfe5U, 0xe5fa1502f60e1302U, 0x607fc071402f7f2U,
  0x8060bd7061c11f5U, 0xf500080000fcf501U, 0xfce3f30602e1eaf4U, 0xfff0fcf2d7fcf803U,
  0xed05fc1ef4e108f9U, 0xf2dd07ca04f9fbf2U, 0xed0709fe080fddf9U, 0xfcfcc4f9f9fb0c05U,
  0xf6c8fe1a05f80d04U, 0xfe1107f3fff5ebf6U, 0xe2090ddffe0afe11U, 0x170c0ff1f9030a0bU,
  0xf000c0913f2dd04U, 0xf30bfc18f1e4f3edU, 0xfe12030d07f9ed05U, 0x1d0711f4fc1e0c18U,
  0xe1120400fbe60616U, 0x1106041812dff406U, 0xf1efee0eede1ebf4U, 0xf505eee415ee07f3U,
  0x3d3ee0704d90af9U, 0xf1f203ad0a01f8ffU, 0xaa0818e1f5f3e3f6U, 0x3e8d4f80df6fbe6U,
  0xffe307020ae51510U, 0x1a0c0bebfb12f513U, 0xdf18faeaf00cef07U, 0xf5f50b1305c713feU,
  0xdb06d800f9fd09d3U, 0x1ffdee2ecec1802U, 0xf50e09d70a1106ecU, 0x407a90600031b09U,
  0x4e204ea050efce7U, 0xee201807f6f223f7U, 0x40207d018f705fdU, 0x4ff1505d5f005f7U,
  0xd21f622f106060bU, 0xfbfc171302fd01edU, 0x6e1fe1302f9ff0aU, 0xbf509e712dfedffU,
  0xed0cf8fdebf400eaU, 0xfdeff9eaeedcece5U, 0xe7da0afe00fde0e3U, 0xfd01e8f7faf608eeU,
  0xabce3f5ee0c0ceaU, 0x4f306d2dc0e11efU, 0xb0bfae0fe07f9f9U, 0xfc0910f8f2f8e7faU,
  0xf01701e911fbfeffU, 0xe50013e8ed0cf4fbU, 0x9f5e406f1f8f80eU, 0xafbf4fd15fcd7e2U,
  0xf513f0080223f618U, 0x1f30c02ff0de5f7U, 0xf7e9dc0bf9efe9dfU, 0x1214fadb02e900f6U,
  0xfe4cee5ec1807faU, 0xf710f2e2fcf51300U, 0x12010ef061f0b04U, 0x14d60de41713f708U,
  0xf6000ff907ee08f8U, 0xf9fd08f701fffe1bU, 0xd14fa10e804030fU, 0xf50af801e515fd0eU,
  0xfff40cf702eef8f7U, 0xff09fce1dff8ffe4U, 0xfa09030a101017f7U, 0xf70203ffddf500fbU,
  0xfd0305fc02f4e50dU, 0xf5f00a05ee02fce8U, 0xf8f3fefe04f70bfdU, 0xcef11fafd02f0e7U,
  0xfafdebfcfaf8ec06U, 0xfa15de0e0818f2ecU, 0xefeec15f1fafd0bU, 0x8fcf7f8eb0d1214U,
  0xe00cfc14f7f005f6U, 0xff08fbea0507eefbU, 0xe20907b1000a00f4U, 0xed00dfe1fefb02fdU,
  0xdbf3f2fa0afc1010U, 0x1200028e0406fefaU, 0xa20df8830cfcedd9U, 0xf9f0dfeffcf2fafcU,
  0x9dfe0070a1011f7U, 0x1a0d23961a0fe624U, 0xee1deed605111305U, 0xec0bf722e10402f5U,
  0xfa0a0e061707daf4U, 0xe7f3f718e4fd08fbU, 0xfff8f8060cfa2607U, 0xfe071f080513f9f3U,
  0xf0f2fbf5f6f2e704U, 0x1fbe0ff010002f6U, 0xfbe30c050ee804U, 0xf5011e100e26f908U,
  0x5e9ee01e9f7fc02U, 0xed0af30309100209U, 0x70301fe1008e601U, 0xfe0408100eff01ffU,
  0xe402f8f3060002efU, 0xfddff8070d0400fcU, 0x17e50c0ce5d20702U, 0x7f3fd070bc6e7fbU,
  0xd0f800f0000601c7U, 0xfb29f1b30efe1916U, 0xfdfc0efa1d05dbefU, 0x1ebdc0212c5f109U,
  0x9f8e70b0602fcf7U, 0x1410f7fe03050910U, 0xd021ccd1b08ee15U, 0xfa07f607000afb00U,
  0xf0feb1003f30309U, 0x10d709fdfb03fe00U, 0xfc0bf3f3e4e505f9U, 0xd11eef5f3dbfbf9U,
  0xd40bfd02f1fafdc9U, 0xfc111ca1f90314fbU, 0xdbeef5d80909ddd9U, 0xf8f8e703e7e4f115U,
  0x600f4ddfadd0d03U, 0x10001f200c05f708U, 0x5fb02d4fc01ea00U, 0xf5f4feeb061e08fcU,
  0xf502ff191a1cfb15U, 0xeceff2dae1ef0e02U, 0xfe12e7f70aece0f1U, 0x22220de30a0d01efU,
  0x9e6ff0cf6e813e2U, 0xf3060ecb09faf0eeU, 0xe904edb1080e18edU, 0xedfaf20dde0902f8U,
  0x811e901f3f1f202U, 0xe208e91bef0118ebU, 0x3f11718f8f7fdfcU, 0xfd04f101e5de170bU,
  0xeceef8071505c2d5U, 0xe92be1f0e1e5e009U, 0x110106f8fc14fd02U, 0xaea11f2f70d1cecU,
  0xf8f6f5e0111fe1f3U, 0xcb1bebee09140b10U, 0x91fedfc0018fafaU, 0xfaf30df5fc0806f2U,
  0xfaec240be801e701U, 0xa0e0bfd0906140fU, 0x30bf2010b0afafaU, 0xf301f00dcafdf9e3U,
  0x11100a100d28f2fcU, 0xcf13f7fef905f5f6U, 0xfd17fde9fbf81cf9U, 0x5e5fd1102ef0dd2U,
  0xc9eaf9061330fef2U, 0xdd1ed8e9141b1200U, 0x2220d00805070c0fU, 0x10e9150ff70519f3U,
  0xce20df61be4fde7U, 0xf60201ea0df91506U, 0xee19f0ed170bf1ecU, 0xff08eee8f9f7e404U,
  0x10f20d1efbeae10cU, 0xdce412f1e7fb01daU, 0xfffd07e3eaff0109U, 0x8f402f6fd09edeaU,
  0xdb0104eff51ae2e3U, 0xdaf909e0f1120f01U, 0x803eaf4edff1bf3U, 0xf5fe08f90001fff9U,
  0xfe03fa0a17f7fc0aU, 0x9fcfe0f03f3fb0bU, 0xee0d0eeefa030307U, 0xfa0905e6f505fcfbU,
  0xfbfb0d15e1f80fffU, 0xfefb0bd60f0c0dfaU, 0xebf8ed0a1c060ef1U, 0xbfc0d0aeed8151cU,
  0x110fc011c00ede4U, 0x9f5fbcf05020711U, 0x22f01504f20eff15U, 0x5f4e1fdf6f80904U,
  0xff20cffeb11defbU, 0xc1ef4e012fff706U, 0xf7070b010b04fe0bU, 0xf4fcee0302ecfb10U,
  0xf4f3f3230dfae301U, 0xf1f303ed04f5f30eU, 0x10f506e608000c00U, 0x12f80208f1fe0013U,
  0xe4110e19f7e6e5f9U, 0xe00e04f2f40402e6U, 0x12ebf5e502fa0114U, 0xefbfff6200f0104U,
  0xe01fff9dee7dcf6U, 0xe0f0dedd07180bf4U, 0x612f3ea1306f204U, 0xec06ec0102dffbf8U,
  0x5f91b05f8edef03U, 0xccecfdf2dfff18f2U, 0xfde716ecffdbf019U, 0x1b0008121615e9efU,
  0xfe040cfef40bd104U, 0xd0dbf101f706e4f8U, 0xf7e8fcfefedefe14U, 0x8fb0d091009fff7U,
  0x1df3d90cfffaf702U, 0xf9feef0815fff1fcU, 0x114ee0c011900feU, 0xdf21303ff19f5U,
  0x8f706f7e2e7f904U, 0x11eefaf301f5f700U, 0xe8f2090404080008U, 0xf90afdf703f3f9f5U,
  0xfae9110210f9faf8U, 0xf5fef10504020ffbU, 0xf6f5eaff0307f406U, 0xff08eb0bf1ffeb17U,
  0x70b04020216fef7U, 0x17fc02f60bef0613U, 0xf204f00bfaf3faU, 0x2f2fbe5f6f405f0U,
  0xf0f8f9fdf6fb030cU, 0xfad9f1fd0a07da0cU, 0x20df1fffaf2f3fbU, 0x15ff06d4080308ebU,
  0xf8f9fdf701d0ef01U, 0xed0a090a03f003f0U, 0x11dedfaff0f0cffU, 0xf0df1e0e11050610U,
  0xfb08fb1dea1af6ebU, 0xeaf50213e1fa0606U, 0xfc0813f6ecf90cffU, 0x29f80c0f0ddef5eeU,
  0x9cbe0011c04130bU, 0xbede902f701fef7U, 0xa09f90407fa0605U, 0x4db1ee80a03fbf1U,
  0x13ece2dce9e602dbU, 0xe211ef07fa0c09f5U, 0x2312070f07191d12U, 0xf0d31d0c100ff6f9U,
  0xf70616f9faf7f9dfU, 0xcdf6e705ebea21e8U, 0xfef3fbf7e6eff900U, 0x1722fc090afef90dU,
  0xaf8f81307f5e20dU, 0x4e7fdfefb09fbfaU, 0x409ff08fcd80a16U, 0xf2eb15fffee8e7f2U,
  0xd62117f3f9f423e5U, 0xdc11faddfffb0afaU, 0xdce1e3f60cfaeaf9U, 0xf207fdfe07ed2810U,
  0x3f9eb0a270a0109U, 0xfdfe0211fb020bf5U, 0xf7f31cdfe5f80116U, 0x212fa06f615cbf4U,
  0xbf614eef008050dU, 0xe7fffc000af9e6U, 0xf202f6010eecf808U, 0xefb0e00feeffefaU,
  0xea0d1fd20f090e05U, 0xe50b13dceb100c01U, 0xd60cf7ed0af2e1f8U, 0x1a0408f3f2ec080bU,
  0xfaef1205110af510U, 0xe3ff070dd7f4f6ebU, 0xf4faf7d71204e609U, 0xfdf0efee04f30e0bU,
  0xfe0bf6f1e7e71106U, 0xe8e8e3fa06ff04fbU, 0xe50704f3f402dcffU, 0xfefee6e00b071509U,
  0xf2eaf704fb09f6U, 0xef0cf0f50bfd1a0cU, 0xe2ff15e9fa03cffbU, 0x1f9ee020010f300U,
  0x6edf700f7f40afbU, 0xf003feeb0bf30816U, 0x5f5f7e8e111f3fbU, 0xe1faf40bf1ee09f6U,
  0x113f707e200f0f6U, 0xf8fcfb091314fa02U, 0x12170907fb0ee811U, 0xe5f402ff03e914f5U,
  0x4ed00f7f13500f7U, 0xe20af7d0f1ecfce1U, 0xf11210090020f5d3U, 0x3edf3110dd40c15U,
  0x314fcf8190f08ffU, 0xefe0ef51a0ae41eU, 0xd4e2faf7ebe6eae7U, 0xf2030c0802db0c16U,
  0xf70b06e1e3f9fdf4U, 0xce3ef03050606feU, 0x17ebe1f909ead614U, 0xf2f1ffeefce40d0aU,
  0xfde71d02faeb0af3U, 0xe808f6e4e7ee0201U, 0xbbe7ffdff706f4e8U, 0xce904ffeed8fefdU,
  0xfdf2f2e601f003faU, 0x9efed10f4ecfd19U, 0xfc0a0905fcf1e8fcU, 0x15fffd041016ea0bU,
  0xb0fecfa0f17ec07U, 0x90608faebf3ee06U, 0xf9141909f4e7f414U, 0xf80a060bf6fbfd06U,
  0x409f7f80d17f8e0U, 0xc021ceeeaff02f6U, 0xc624fac40512f811U, 0x80e0a04ea0bf605U,
  0xfb051b00e701f002U, 0x1020c13fbf406faU, 0xfef80912fafaeff5U, 0xe31205fb050504fcU,
  0xfbf3fbebdaeafdfaU, 0x7f6e9edf1fc02d5U, 0xd17efe80e08ebecU, 0xfef8f709f9e50e01U,
  0xf7ff12d8fff5ffffU, 0xfb1501f8fe0afdf5U, 0xf7e6fdf0fdedf7fdU, 0xdcf3dd11d401fdf7U,
  0x8dcf504edf8fbecU, 0xe006f6e6e9f9f4efU, 0x7d4f2f4f10307f8U, 0xdf14fd050b0df60cU,
  0x4cf0513fc0e0e0dU, 0x81401eb06edfdfeU, 0xf5fa10f5fb030808U, 0x1107e3e0fe05060bU,
  0x81103f5172103fdU, 0xfa2b02eff9eef70aU, 0xeff20b04f6d90204U, 0x180bf9fa0722fdf1U,
  0xff04eb19f90f0afbU, 0x10f8f1f1e7eaec00U, 0xfadff300ea12efddU, 0xbfef6fa0efafaf4U,
  0xeae3eddefd0c0dfcU, 0xf6f8031402f30b02U, 0xf0050bfcf3fd06efU, 0x12e9e50cf81407feU,
  0x1a090ff419ecf405U, 0xf11cf708f508d2f9U, 0xefed14fb11de100bU, 0x18f5e9f7eae7151bU,
  0x1809f40901f3fdf7U, 0xfafb05f6def1cce8U, 0x8eff5ec16f62107U, 0xff70d09d51220edU,
  0x1cff31c12000e00U, 0xede203b3ff07eaf7U, 0x1002f911fc09ee0fU, 0xfbece2e2e4fe00f3U,
  0xe100f015fa030efcU, 0x20600deecf1c402U, 0xe4e5f4c4f315eae6U, 0x7f1f4faff080020U,
  0xec03fcf0080b0bfcU, 0xf9110fdb18fc0320U, 0xf604f8c70002f6feU, 0xfd0514f506ed0d00U,
  0x5ef150bf0f206feU, 0xeaece6f7f7f10a02U, 0xebfcffce0afbfafdU, 0xf2ff1205f9e3fff5U,
  0xfb1612e308cdf90bU, 0xbfa0613fe00d6f0U, 0xdf002f0fe040611U, 0xf1160715f0ee08f5U,
  0xed0d04f202ddf9faU, 0xef2dd1bf3fc10ffU, 0xb0003151fd51e0fU, 0xfd0d03ff05f302f8U,
  0x13ebfcf302f705eeU, 0xe51001000112f7f1U, 0xee0102e006fe040aU, 0x5fb0d04f40ef802U,
  0xf6fe1a120209ec04U, 0xe70af1090d0af80dU, 0x7020006f5f408ffU, 0xfb02f3000612fd02U,
  0x4fef01bffee07faU, 0x303f90005f4f3fdU, 0x201030f08e504f4U, 0xa0d0103e4f1fb04U,
  0x4eeff01f0ffdbfcU, 0xf52b07edfddf0805U, 0xe0af9f60dfd1405U, 0xe6f90a1207fff3f4U,
  0xef1307e50705bd04U, 0xfef6fe190907e9f6U, 0x2000ffbf412250aU, 0xf7060aff07f819f7U,
  0xff0af1fd05dbd3f8U, 0x1be1e7f6ee090dfaU, 0x715f2fff5fe0f03U, 0xfc04f2f9dd091802U,
  0x16fb15eb05dbfdf8U, 0xd62de5fde3f6f4f9U, 0xf10d0ff20aeb1a11U, 0xfb120e12e401f0fbU,
  0xf6fa0a28fe02db19U, 0xe60df31c07fee9f4U, 0xebf2f91bf1ef1715U, 0xfb0915f1f3030005U,
  0xd8f6e616f814e0fdU, 0x903f0010fecdbf1U, 0xfaf8fb0fe9ed0800U, 0xff05f80bfe0704efU,
  0xeef0514e505fffcU, 0xfe18f2fcf718ee07U, 0xeef703f505f8f8f3U, 0xff0e08ec02fbf8f6U,
  0x1eb0b19f4eafd0aU, 0xe705e402020501f9U, 0x908f6f302fd0609U, 0xde4fd080617fcfeU,
  0xf4090607f3f3f7feU, 0x60afb0709f8f1ecU, 0xef80e04fe0907fdU, 0xf7f4fa04edebe80cU,
  0xdb0412fafaf3c702U, 0xf7fcf702ff0bd6f3U, 0x2fffbf0ef07fb07U, 0xdb07f908f2fdfe10U,
  0xc312de18df13eeedU, 0x101ff14ebfbf905U, 0x1b010305fdf82b0dU, 0xf5fc02f3d00cee00U,
  0xd4290af5e2f8f7feU, 0xf1051113ea07f7e6U, 0x1bff2204edfb0605U, 0x4fbfa09dcfefce9U,
  0xebf7030d04fac602U, 0xf0f70614f01001fbU, 0x100df4050d05190bU, 0x9fd080017f5f2faU,
  0xd203f0181325eff3U, 0xe2feee0cf20205fdU, 0xbf9e414f1edfe06U, 0x11f7e9dfe513fbfeU,
  0xf6f8e9f7fa00e9feU, 0xe5140504f3f7cbf7U, 0x14fde007fae8c807U, 0x141208f9f822050aU,
  0xf802fe1bf4f409edU, 0xfe0af40e0912f7efU, 0xd21fc04020b10ffU, 0x10fa02e1ff090a00U,
  0xf2fc0405fb0405f9U, 0x160d0df400ff070fU, 0xfaf5f705edfef2f1U, 0xaf3ece401071409U,
  0x4f2fd0cffeefb03U, 0xf211ecf7f406ed10U, 0xe7f90cccfdfcfa04U, 0x16f41008e7e0dffbU,
  0xf705fbfe0ef40e05U, 0xf1ea03df0f0117feU, 0xf1ecfc17e9e3fb1fU, 0xc60a02fb14b80e17U,
  0x17c6e4f4dbe108f4U, 0xb04f80cfe10f1e8U, 0xccff17b5011c18fbU, 0x15f11204e7fe000aU,
  0xfc141ff33aedfafbU, 0xe608140ce3f5def3U, 0x8df0208eee7edfbU, 0xfdfffbfa0ffceefcU,
  0x503ed051fec0109U, 0xdc13f3f2f60314feU, 0xf0f00605f1d9fa05U, 0xfa0bf301fde9f118U,
  0x4c00105feba08edU, 0xd0ffdf60105ecfdU, 0xd3e70ddbfc0b1aedU, 0x3040109e602fd08U,
  0x80402f41300ff03U, 0xd9010900edf5db0bU, 0xfd070312e8f508f5U, 0xfa0406f20df918f6U,
  0xf7eafb0308e308e0U, 0xd6fb07d4f1fff2e3U, 0xe507f90104fee7e3U, 0x1103d5e6fdf6f2efU,
  0xf981f20702f108dfU, 0xee21fbf2f807f5ecU, 0xf508f8bb03ff2beaU, 0x901f7fefefeeaf9U,
  0xfeec0f1008e10202U, 0xff04e2fbfb0eedf0U, 0x10ff80c0708fa0dU, 0x171ffffff61U,
  0xffffff86ffffff8aU, 0x13000000feU, 0xd500000048U, 0xffffffd3ffffff52U,
  0x9900000004U, 0xa7fffffde4U, 0x23200000070U, 0x6d000001ceU,
  0xffffffe8000001efU, 0x5500000038U, 0xffffffdafffffec1U, 0x1b3ffffff90U,
  0x179000000bcU, 0x9a000000e4U, 0x1c7ffffffddU, 0xf30eed1fe815f514U,
  0x28f20a121600fd0dU, 0xef04d20be2e3fe15U, 0xd315f6feff02cf00U, 0xec13d8f3e01bf7c9U,
  0xfebe0af204dffb0cU, 0xcfd5e1f6d9d501e2U, 0xea01e8f6dbf404d2U, 0x208f2fcfcf802daU,
  0xfced04fffcf21ddaU, 0xdd1ab4edfbfbe5f8U, 0xe10d01eef9c2f816U, 0x1cf6f607e628031bU,
  0x1706281b0b15fbfcU, 0xc15e80009fbfc08U, 0x40cea090fde09ffU, 0xf6dcc0f6f9fb20d8U,
  0x23e4f5fbf2f909feU, 0xe7ea1705ededfd2fU, 0x2f6e4f8fdf108dfU, 0xf9f1d327e01bfffbU,
  0x12d0f7f20ed823f4U, 0x170dce0f1efde608U, 0x1add04f7fce80be0U, 0xfb08ff08120bf40dU,
  0xee020816feffc908U, 0x16ffdd0803120901U, 0x1702131318fc0908U, 0xfc0bf9f8070c1fe1U,
  0xdeffe505260c0024U, 0xbef0de00ef3f70bU, 0x60ffa1bddfaf9f6U, 0x2606f6050d02f70fU,
  0xfadef505140c09ffU, 0xfcefe01dfc13fc17U, 0xdaef09f4f9f9eac1U, 0xfc01faf5fcf40704U,
  0x1f8f3f201f5f800U, 0x30701faeb07faU, 0xfefcfff803f8fd09U, 0xf3f3fbf10804f9fdU,
  0x6f307faf4f50102U, 0xf3f809fe09f0fe01U, 0xfc0405fb03f5f0f6U, 0xf9eefdf8fc02f5f9U,
  0x60203faf3fef9faU, 0xf609f6ff0403fd03U, 0x103fbfff4ff0500U, 0xf7fefbf601faf205U,
  0xeefb0400fbfefdf6U, 0xf1f70102fdfb00f1U, 0xf207fafdf8f3fe01U, 0x2ecfef6f1f3f106U,
  0xfcfeeff4f2f1fc07U, 0xf6f403ef02f2fcf4U, 0x2f20003ff07ef03U, 0xfef1fff1f4fffafeU,
  0xfb0afaf6fc01f1feU, 0xf9fd00ecfef7f002U, 0xf1fbfdf4f706f104U, 0xf60afd0bf90001f5U,
  0xf4fb04f7f0fe01U, 0xf6f6fff504fc0b01U, 0xfcfaf3f704f1f905U, 0xec02f204fa08efffU,
  0xfcfffafbf6f4f9fbU, 0xfb04feed0205ef02U, 0x801edfcf3f8fc01U, 0xf801ff03f7000907U,
  0xfcfaf606f6fdf3fdU, 0xfcfdfeef04f101f6U, 0xff02f7fcf7fff605U, 0xf2ed14f3e3070603U,
  0x14070e12e7fdfaecU, 0xc109e9f0fbf513f9U, 0xeffa1bdd18eaffeeU, 0xc3f7081afb031102U,
  0xe0cf5f7e1e0fdeaU, 0xe31109e517f7090aU, 0x6f4f9fef1f10c04U, 0xf5e70e2a08fcec18U,
  0xf70c1221fbf11a06U, 0x28e41df5f512f002U, 0xbf8ec0709071b27U, 0x13c9ecf2f8cf06ffU,
  0xfb043908fe081b04U, 0xfff0f1ece905c3f7U, 0xbf8dc0a04f8140bU, 0xfcc04eef0ce0f04U,
  0x70cece9fcf9fbf3U, 0xead6f80aed05c501U, 0xece2c701ecfdf0dcU, 0x17f70ee1daac18feU,
  0x211ec020a0afaceU, 0xeee81217d80acef7U, 0x80cbb09fe1bef0eU, 0x30f8fa1703f51907U,
  0x1b101b25101df9f2U, 0xf6fa0a160ef6f60dU, 0x13f9f7fd17ff2412U, 0x2f8ea10ccd60ff7U,
  0xe3f6efff0ee9e1U, 0x161b24dff0f102U, 0xf3e1fa0700080edeU, 0xbc9ccf0e7e1f4d8U,
  0x4e60fd6eb0105f4U, 0xaf4f7de06fcfa14U, 0xfc06fd0534f017cfU, 0xeebf50cf8eb0200U,
  0xfd14da1affdce7ecU, 0x621fb1cfc0f07f8U, 0x2bd61108ed0102f5U, 0xeae9d7040d12f40fU,
  0x19dbf611fbeb0016U, 0xefedf91f15f10af2U, 0xea17f2fcefe9ede7U, 0xfe08ca0a052009faU,
  0xff06fef9fbf20afcU, 0x1e300e2effdede4U, 0x140b05f3031d0122U, 0xf790bed7df12f8fcU,
  0x2ee81cdde812010bU, 0xe6f8ebeee4ffb511U, 0xf6e5c6ba1fdd0eebU, 0xfcb1f001e707f7d1U,
  0x1bdc0cede70629c1U, 0x9cca1dfde2f9d510U, 0x301bdc205c6f6dbU, 0x13cc161e03fcece9U,
  0xfd110109f51511ddU, 0xbcca2a250eef1526U, 0xe3d0e1cee2051523U, 0x1f23ea09e6f9de09U,
  0xeaef1f1421f3daefU, 0x1df8ed09e3e9100eU, 0xdf06192bf6e2fbe8U, 0x12eac2f710ff0c10U,
  0xda0504ed0e10e5f3U, 0xf8e0fbf6effe1302U, 0xe5100401041709f9U, 0x40dea02d2fff9c5U,
  0xd4ee0001fe08040fU, 0x14f511e2fbe3e307U, 0xf708151f060604edU, 0x11f9fafce1dca211U,
  0xfef2fbf1f8fef9d2U, 0xf101f2efe4f7fa05U, 0xef07f519f311f607U, 0xe918e6efffdfddefU,
  0xf7ea21c50febf606U, 0x3f4dfe8fbe3f109U, 0xbb2bed10f3e6fd17U, 0xd703f0e8f0fad2f1U,
  0x6f4fbb1fde0c8ceU, 0x10dfe107e0f4fff4U, 0x80fee090fe71315U, 0xf80c091ff900f3f7U,
  0x13f31d0200080f06U, 0x30a10091bef06fcU, 0x1704fc0307fa1c06U, 0x11031cf6dd0ce024U,
  0xb41f018e402f6deU, 0xf82b060d16fb0cf9U, 0xef7e3fff113002bU, 0xd20f06181129fc00U,
  0xd604fd0edbec0ef4U, 0x110e0404cd0bf018U, 0x19f204010907f714U, 0xeff7e9ede9f9f601U,
  0xd6dc08ec07040519U, 0xbf90cfc16e5f8f0U, 0xf806fb0007efecebU, 0x415f5e2f9170c07U,
  0xfa0cf807050e1603U, 0xbf30ef313fffadeU, 0x16f50c041f0610f8U, 0xf9f5100a0c030600U,
  0xffe22cfd1000f00aU, 0x1c20edfbf5e91009U, 0xdafb09e90fe4fcfcU, 0x4f6c9ede500e9dbU,
  0x1ade04fdf0f507eaU, 0xeef2ece703fbf2f3U, 0xe210fafcffe4eef6U, 0xf714f5ffd001c6f4U,
  0xbe1e9fce4f215d2U, 0xff3f60dedeefb12U, 0xb14ec0316dae0f4U, 0xcae0ce0bf70be9fdU,
  0xffeedaee1ee9170bU, 0x1e4f2faedcc141cU, 0xdb0af7eddb0d15e8U, 0xd71cd01ae218edcdU,
  0x6d504e30aeaf831U, 0xf7c4e6f0f106ffd9U, 0xe70b03fcf1e6f9eeU, 0x1f8df010105ecd2U,
  0x20d90ff411ea0206U, 0xfbf7e0f60602feeeU, 0x102ff111ef9f7eaU, 0xeb09f315f5eb04f7U,
  0x15fe1edb07f625f9U, 0xef05e0d2d3db0e01U, 0xdb03090ceff4fef9U, 0xfe1bf6cf0eef1be0U,
  0xe81405f5121208eeU, 0x22f6000e0109fefdU, 0xe9041402f6edf312U, 0x35fa08e907ec1a16U,
  0xfe220eeffa1ee9f0U, 0x227fef50e15080cU, 0x2ffef0918f81109U, 0x1601fa03fd2cecf9U,
  0xe0b0536100a1917U, 0x1b21e8f9fe1bf515U, 0xff42808250c15edU, 0xee00e00efce6dff3U,
  0x90225f5ffff1dc3U, 0x7f308c9c7fc0be8U, 0x13150fe2f13319e3U, 0x1110e702cb05fe17U,
  0x9e10af9f9de0b2bU, 0xbd9e1d90a1decfaU, 0xa15130318f60a11U, 0xeeedbebfbcff0ffU,
  0xeff3e00beefd0602U, 0xe30afbedf90af6faU, 0x16fbe4ff0a06e1fcU, 0xdb26e4ed0910fbf1U,
  0xfeef00d20ac91cd8U, 0xe8e0eff6c3f90aedU, 0x21c04eeee090906U, 0xfe190fedf13025d7U,
  0x70a040805e1140fU, 0xeb20172eed1acfedU, 0xf0c07ead901eb26U, 0x18f0fffc020af8U,
  0x6d9f9fe13c2d911U, 0xe9f6dcdd1ef9f8eaU, 0xf00df40fc8deddU, 0x2f7080be904030dU,
  0x1c0fffd4d90211fdU, 0xe8fae5eee4111f04U, 0xf1140fd508ed0bffU, 0xf501fee81a2123f5U,
  0xb10f0e0fefe1713U, 0x211f1c090404060fU, 0xc01ead4f603f211U, 0xfe1ad4f1fb160dc1U,
  0xe0426f800d9f7d2U, 0xe3dae9ecfa0917efU, 0xff090cfdcc07fa10U, 0xfce5e5fbeefb14f2U,
  0x120b090efcf0fbd9U, 0xfc1fd9e2f50006fcU, 0xeff0e0a08f507f5U, 0xe515f31af90a030bU,
  0xf6f101fcdafaf302U, 0xb0ad3ea03fdfefbU, 0x3eafafb16f8040bU, 0xf30414fa11fdf5fcU,
  0xef070afaee0807c6U, 0xb182507eede01eeU, 0xff07e819fb18eb0fU, 0xf405061212e8ff10U,
  0x19f6f1fcfbfa06dcU, 0xede8041422ea090aU, 0x121f2f6fef90111U, 0x1eb20f20504e5f4U,
  0x1913dd03e8030eedU, 0xfa03fd2df8ff0704U, 0xf1c1edc2f8e108U, 0xfed511f802f509f9U,
  0xf119ec13ea250119U, 0xf40d230ded032806U, 0xd9f6e8ee05fe12U, 0x50d06e4f80dfa0fU,
  0xec0bdff3fe10ed07U, 0xfe2ceef3f8fff016U, 0x161902030315ed15U, 0xf704eaeae70804ecU,
  0x5f30cf01a212433U, 0x1b0c1ee402f107ebU, 0xfef0e612eef301f1U, 0x13e9f9f210f214fcU,
  0x505fcfc0f07030bU, 0xfefa0cfe2408e306U, 0xf1f7e503021af50dU, 0xfdf3fbfff90ff413U,
  0xfe03fb14ff19fef9U, 0x201c0819e91a1111U, 0x16e10a10082aebfaU, 0x17dce708edf60000U,
  0xeaf5f106fdeaeb10U, 0xef17f3ebfef5f01dU, 0xde5e0df08fa16e8U, 0xf9ebf71ef422fef2U,
  0x11f3fd03eff70d0fU, 0xe8e0e2f6ed0f1320U, 0x60a16012c05080fU, 0xf4f2d8e3150207f1U,
  0xfefa0be20ee203f3U, 0x15e7fb01f5f8f808U, 0x90efa00f9ff11e5U, 0xbf5cde2daffe209U,
  0xddf801e10203da0bU, 0x4f2da03ddfed1dfU, 0xac7e8fc11fde8e2U, 0xe03ffee241f06b9U,
  0xf05f7fd0d0ee61bU, 0x1803182911fdd205U, 0xe1e4ef16f6f4f308U, 0xcee4defe16fa01e8U,
  0x12df0edb0ae00aecU, 0xf8f3ffcff50709cbU, 0x132104ecdb0813f0U, 0x19e80509fff7ddbeU,
  0x9e302eeece1fb06U, 0xe7da0a0f0c06fb03U, 0xfcdf140002d511c4U, 0xfd18ea2004090dU,
  0xfff919fffafc27U, 0xbf01d233ced0c06U, 0xe7eef0fcfd01f706U, 0xb408eaf40904dfe8U,
  0x5ec24efeef93010U, 0xfce9daf0c5dd1c0aU, 0xe130fcf905ef0ee5U, 0xd114bcfcfe06fe02U,
  0x9f5f9f3e6f71c14U, 0xd2fdf7f903dc1f12U, 0xf4310f00fd08f2dfU, 0xdc0af401e300c7f2U,
  0xf4fcedeefce1fcd0U, 0xe814ede608d40efcU, 0xbfa08f5d20afeefU, 0x4fae7fee4f710f2U,
  0xf42fed31ff0213U, 0xf7e307f5ede1fa02U, 0xe60c091811f3e7f7U, 0xfaf9c9efeaf7f5c7U,
  0xd0e6ddfff800fbf0U, 0xf4fe0014ebdcf6efU, 0x4e40e12f608e3edU, 0xf204fae5d3d102f1U,
  0x602eff40b03f7f1U, 0x24ed00ffefeef4caU, 0xefe20520d7ffe4f7U, 0x1005070509f82f22U,
  0x91112001cc50dU, 0xf3fa0df200dc02ffU, 0xf12412f10616081cU, 0x12e5f2f4feefd718U,
  0xe0e21f8fafcef02U, 0xfbfb1512e8051114U, 0x27ff12f2e9f9fb0aU, 0xdc010a0fec20e0dcU,
  0xf9d5e3ebcdfff8f6U, 0xc8ff0be4f6e8270bU, 0xaf025ead0e011dcU, 0x3fdc10dcbf00eebU,
  0xf5c6f1d00aeffae6U, 0xd0f3e0c4fbdd15U, 0xec03da2209d4d5eeU, 0xf318f2f00909facfU,
  0xf4d90406f3e30febU, 0xea05d2eb0903f11dU, 0x60d0d1501f1d4edU, 0xeb04efe908f4130aU,
  0xe9eb240910fb0919U, 0xda08d6cfe820fdf0U, 0xd82821ef051902f5U, 0x406ff06e616dcb7U,
  0xf7c519d0eaf6ebd3U, 0x8dfd3f0f108110dU, 0x6ff0800f1f4fc03U, 0xec040b0918ddfbd0U,
  0xec00e9f51eeaf011U, 0x1f7ed0202feed03U, 0xf401fae8f5da0f0eU, 0x50df60202f3010dU,
  0x1f60cf9f40ae509U, 0xfb0ef308170d19f9U, 0xe7ec180910ff24f5U, 0xfd08f701e512f7e2U,
  0x1de106edc7fd0e1aU, 0x125f6cbedf81afbU, 0x1ce00515f8eb08f9U, 0xf201f707041013c9U,
  0x29f621cef9141b05U, 0xee13edf905e923e0U, 0x1a27f7fef6f203f4U, 0xfeedfd0b2708fefbU,
  0x12fe10eae70208f6U, 0xe10dfd04000919e8U, 0xf9f8f11e2225e4U, 0xe10df1e715160ac3U,
  0xfefcdce6e3e51302U, 0xde414eaf2e403fbU, 0x30915f802d8faebU, 0xf6e006022306f110U,
  0xe3f7dc0cd1f8eff0U, 0xf130a0cc5242e07U, 0xc0114efec0508e0U, 0x6f807170e0102f7U,
  0xffad80ddff6021fU, 0xfb0419dff70afdfcU, 0xfe0fc100e06f3ffU, 0xfc80aecf4eceadfU,
  0xfee0fdd7de2508f1U, 0xe9d0ebe5e5d81fdeU, 0xeb28e1e60d06f310U, 0xcfef0cfcfd01f4e5U,
  0xdaeb3208f1f2f103U, 0x19f1ca1f12fef207U, 0xf61801e3fad00924U, 0xdde106210309e5ecU,
  0x610f60605f1effbU, 0xfee9fb040214df0cU, 0x11e5e5f20fd80b15U, 0xc30d0b172b0beae6U,
  0x80f1003f00804faU, 0x22f9dd1403f5dff3U, 0xfee80b0e30e2fe15U, 0xdc2b07fffb14f40eU,
  0x91a371407dbfd07U, 0xf720cd1008f4f40eU, 0xdc33fffbdbd2af36U, 0xbe1bf708f6081609U,
  0xea05d6f91bedec19U, 0x1a1533f80e04f5f1U, 0x5f1e5edf02ddbfcU, 0xad30408f7ef0c0cU,
  0xec0c1c0fd91c0128U, 0xbc80ffc00eafdf3U, 0xe117e9ca2111dff3U, 0xefdf1101f903e819U,
  0xf019043ae2f6211bU, 0xf8f119ec0fd2f4f3U, 0xf8f2e9e602031207U, 0xf60412061cf10fU,
  0xe801de1511ef12ffU, 0x71aeaeb10fe2a1bU, 0xfe0909fa0bfffd18U, 0x19ce090908fa1211U,
  0xd319122bf11b0413U, 0xf5031a1cf405d9f2U, 0x2ffea001a0cf900U, 0x13e904f013d4eb08U,
  0xdf0bf11b07ea07f2U, 0x612f92318e7b613U, 0xf5f5d6fcddf906f6U, 0x1e505e5fd0ce008U,
  0xf609ec1b10fcf5e5U, 0xfe0f001dfef4ef04U, 0xeb14e315e6fef50fU, 0xfcf103f80b0a2211U,
  0x110b070302f31501U, 0xc12f9100b06e1f1U, 0xf4f6fcda0007f40aU, 0xf909f8f506171700U,
  0xf216fd19e90bf0f3U, 0x1021f70823ec1deeU, 0xfcfb0ffde907f71fU, 0xe407020008f7fce8U,
  0xf6f5f2fde2fc16f5U, 0xfc160701f8fafaedU, 0xf5f8e90a0610fd09U, 0x29e804e412e51413U,
  0x18103120f51f1ffaU, 0xfe910f4fc12dfffU, 0x1b10071be9f919faU, 0x1bfae4f204ece90cU,
  0x12ed19f90e090411U, 0xeebe219ff16fc0eU, 0xf50f1504130a19ceU, 0xf6ea05f017d8f013U,
  0xd8f9ef0ff2e30a19U, 0xbe4f7f812100ff4U, 0x2fcebf7e81506acU, 0x100f0217f603cb09U,
  0x8fd1a0f27eb17faU, 0x18f0140907f5f308U, 0xd081c0cf30ef80fU, 0xe42ba6ffe6fa0008U,
  0xfaae0a1b01d509f1U, 0x9f9f8082afc0305U, 0xb180df5ffea06f7U, 0xd7fcef0a0fe4fbc3U,
  0xd7daeff501f00119U, 0xead2050b0ee2ffeeU, 0xe7f001e711e1f4e1U, 0xf60bfef7fffdca12U,
  0xf4e8191ef7db1305U, 0x3f70705f603fd15U, 0xcf91f04f3110211U, 0xe50fb4ffd3fdd9f2U,
  0xe08103f2faeaf1f4U, 0xe9d1ddf6dee00ef1U, 0xf918fae9fc0314e7U, 0xeff4f1e70304e9f3U,
  0xfb0109f5f9ef0ef7U, 0xe9e0e6d316fa01ecU, 0x30b02eef503fff5U, 0xaf7ee0df5f91b1cU,
  0x71005f90101cc17U, 0xd906eafbeef00e14U, 0x1700e8f9120104e5U, 0xec07082803fe0ae3U,
  0x6eec6e801e81217U, 0xcf13f2f9f913f71bU, 0x3e9e9f9edd61edbU, 0x2e7002b000dfdefU,
  0xd02d4fd1ae4081bU, 0x412ef04fa0bf70fU, 0xbf5f0fdede822ffU, 0x15f2fd01fcd8eb23U,
  0xe6200ff5f70cf302U, 0x1b22df27e4fa150cU, 0x22011215120f080cU, 0xf80bf1e105cdfff4U,
  0xd8d815ca0cfbe216U, 0xf114fcf3030dede8U, 0x19e4e21cf403f4f5U, 0xfa130d090af908efU,
  0x151d1bb30401e4f2U, 0xd03ebfff3e60612U, 0xff10f91409fbf803U, 0x7fde005d6f1e9e9U,
  0xf3f0d41ed3ed07caU, 0xddcc01de07e8f603U, 0x17fb1efce3de0d08U, 0xf700fdd5f7f4e5caU,
  0xd10eccd3fe00f606U, 0x9f809c5e6f100f2U, 0xf06eaf7070610d2U, 0xde0cfa15e8f5f316U,
  0x1113070cf3060b19U, 0xece7f11a1007fb10U, 0xe5fb1cfcfaebf419U, 0xef07de0e090401fcU,
  0xfee04fb210505b4U, 0xf0dee903f3030917U, 0xf6f2fd030bf90effU, 0xe9f9e4efefe9f4c3U,
  0x9cfd4020bccfa04U, 0xe5ffe5e717f807f3U, 0xf3fb17eb03da02e4U, 0xda1105f6241ffe14U,
  0xf3f5e7f8fff40be9U, 0x11efef15e704f40dU, 0xf0fcf6f425f0f70bU, 0x23f9dc0c0cf725f3U,
  0xb0efe080ff7ebU, 0x230a250507efe817U, 0xe3fef013fbfb0303U, 0x203f62804f9f4dfU,
  0xeae0fadf00d6ec01U, 0xe5e5ede8ee0aff09U, 0x8f614e607fe11edU, 0xd010022c1407fbcdU,
  0x3fb20d9f0d117fbU, 0xf2231203e0f811f6U, 0xe5ec0fed00d70f19U, 0xce503f6f8002410U,
  0xd1013fafa15e604U, 0xa18fcf91d03c80bU, 0xf1f1e5ff031afdfeU, 0x18e9dbf2e70aeb0bU,
  0x1cf6e1f2fe16e4f9U, 0xe6deecfa0501f413U, 0x3e1e6e41e0012e1U, 0x710df1de410e8edU,
  0x190deddf142103ceU, 0x711141af7fef8faU, 0x13d60010190407f3U, 0xe9edd9fe18f4ff0dU,
  0xdad8d90d05f507fdU, 0xfcc600fdf401f4dfU, 0xfa080cf6f104f0fdU, 0xd512dd07e0f0f3ecU,
  0x802182008ed0c02U, 0xf7fb9e1d1ffaeb0fU, 0xdb0e21fbe911e3f5U, 0x107effd030c14eeU,
  0x2af91b0404060002U, 0xceb10a0cf6f20f0aU, 0x4d9fed7ebfdf7f8U, 0xaf0e2f8f5f4e617U,
  0x1aae16f4ed170dfaU, 0x3d7da0907060820U, 0x3e70d11f3fdf7d8U, 0xe2f9fc0e0414ead7U,
  0x16db03fbfed0fa02U, 0x1402cb1d030ce124U, 0xccfd1af9e7d1e816U, 0xe51af4ea130e1df5U,
  0xfbfd0405f604c91cU, 0xf70701fadff8f102U, 0x12ddfddef4010f08U, 0xe914ecfb1310dd02U,
  0xedfa260101fd1cfeU, 0x1edfd0fc2611fc07U, 0x20e08eaf1cb0c27U, 0xf42213111c000c01U,
  0xe0b1102eefd05f6U, 0x170af5102810030bU, 0x171509ebebf9021fU, 0xe709ee07f326fb1aU,
  0x1105faefe30ed9ebU, 0xfa010700d403020bU, 0xf4ede1eaf5fc071eU, 0xf7fafdfd03f0fef8U,
  0x8fcfa01f3fcf502U, 0xfe0b05fc02fffcf9U, 0x6fff80200020506U, 0xfffbf0fef1f0f2f6U,
  0x2f605f8f8fafffdU, 0xf601f402fcfdfffbU, 0xfcf5f1fbf3f600fcU, 0xfefbfb0806f5ff05U,
  0x6000200f9fd0303U, 0x4f5fbfe0700ff04U, 0x301fc0201f7f6fcU, 0xff07f606f8f000fcU,
  0xfef9f3f5f7f104f6U, 0xfd010101fef7fefdU, 0xf603f501fff30508U, 0xf90101fc02030006U,
  0x4fff5f405f1050cU, 0xff05fefaf1ef01faU, 0xf5f8fef5fdf2fa02U, 0xf0fef2ff02fb08faU,
  0xf8f208f507faf308U, 0xfc0503fa06f801fdU, 0xf90401fb02f400faU, 0x108f902fa05f1fcU,
  0x2f4f4f505fafdffU, 0x302f70300f1f404U, 0x4f5f3f3fff7f3feU, 0xf502f3f7f6fef5feU,
  0xf9fcfef5fefef5faU, 0x10af2f7fb0001feU, 0x2fbfd02fdfcf5ffU, 0xfb03f80603f5f9efU,
  0xfefdfef2fdf5f902U, 0xf2fe05f60003fcf4U, 0xfbf4f5f9f802fdf6U, 0x5fdfc0c02f4eddcU,
  0x80a10fc07fdf8e2U, 0x1206ec10fd0abdd8U, 0xf70b08e4fae40d19U, 0xe11e0cf6200008c1U,
  0xb8f9e60becc1f1fdU, 0x3e4e9e520e9f2U, 0x1eb16e3f1f3f007U, 0xedfc0c0514190703U,
  0xc1f10c1004faff0eU, 0x20ff801f40a1612U, 0x1bff0af5000ef2fbU, 0x2f3170909eefd26U,
  0xf900ec0d1afffb17U, 0xff0fef1a06ec1e14U, 0xcfffee10302edf8U, 0xece6f504fc09e623U,
  0xef6e017ee17dcf0U, 0xdefd10210fe52dfeU, 0x1fdfbcd09030bf8U, 0x7f90f09d81200eeU,
  0x2113f2fc0d1a1227U, 0xf60a3d23edf11df2U, 0x8e1ec0cea1d0706U, 0xfd203fb10fd0f09U,
  0xf08f002f8f7e6fcU, 0x71e03f5f1edff0eU, 0xf6e10c0f01001800U, 0x14eee709ebeafff1U,
  0xfc00fe120b05f8faU, 0xf523ffdef5e00cecU, 0xbeffa11190908dcU, 0x31604ed02100700U,
  0xf1f7f5eb10ff0636U, 0xd2de7d8f4dbfee5U, 0xce8f80fe6f10ad8U, 0xf9f704ef232bed06U,
  0xffdf8f702f1ff14U, 0x19eff30a0ffefd14U, 0xf02fa0d0b1120e2U, 0x21f5e308e21217fcU,
  0x908fd1eedf9db14U, 0x215f422dc15f918U, 0x1af8050c13fbfedcU, 0xf0fca3f304e509f6U,
  0x12c103a4ffefc7ddU, 0xf7cefffd09fdf804U, 0x5eef6eb08e60beeU, 0xfcd3c20ef70be8e1U,
  0x23db24f7daeffae3U, 0xc9fa04e1fcec120bU, 0x1df04fe03d91dc6U, 0x8feec10ed1d20ebU,
  0x3f109ee01e8f008U, 0xdcfcefd5f510f223U, 0x1a06eefc001afdc8U, 0xddfcf828f2260905U,
  0xef4ee0a02ff290fU, 0xf1ebde00132a0f1dU, 0x17edf0dc20fa1a13U, 0xecddf6e2d5c7efe3U,
  0x16d713de04dc020cU, 0x1100eeeae80abef7U, 0xf3ced1071205facdU, 0x91bf6f216c2f5dcU,
  0xe9cdecba07e0cf0dU, 0x1527fbf2faf8f7e6U, 0xf2f2dd17d8fde8d4U, 0x17ee0ef40bf9ff03U,
  0xee07dbeb1df4f719U, 0x120f00150a0b00efU, 0xed07fb0d0b01f006U, 0x816020214fef32aU,
  0xd11c0b111b0b0cf4U, 0x6f7f902071ceef2U, 0xf8f9f2f7140ce506U, 0xf2fd091000f4f402U,
  0xfd14f61d05e207f8U, 0xee11001bef03dfeaU, 0x2c01fd07db05fbf6U, 0xf9f104f9ee0de204U,
  0xe602f403fa0b05ffU, 0x1fcc08f70726fa13U, 0xcedddf11908e9ffU, 0xe5e606f1ef0f0820U,
  0xd503f90bd4f60dd6U, 0x2bf00d25e6dd0c0bU, 0xd41b16fede15d70bU, 0x1cd0bb61a07090cU,
  0xe7f8daf1df02f4f9U, 0xaf007080af8d408U, 0xeeeecbe8edfcf9f4U, 0x10030a0b0d2a00f9U,
  0xfbe71afce7f91fU, 0xfff8f9240011f71aU, 0xecf8120b10e8f013U, 0xe9f4fa1d1203e4e6U,
  0xfef8ec2fd6f91d19U, 0xfc1226f1f0e3f00fU, 0xf8e315efe7d902dfU, 0xf7010b0e20072000U,
  0xf907f6ee06f200f3U, 0xf9fe0d0205e2fbf2U, 0xd8f30fd8f619f712U, 0x17e213dd0b0200ffU,
  0x1701ed1be60815faU, 0xf40ffa160b01ebeaU, 0xf3ea0111011ce013U, 0xfb04f2f9ebe606e0U,
  0x1e807e7f3db07f3U, 0xeee4edd1f7f8e302U, 0xd70ee409fdfe01U, 0xe91800f60b17f121U,
  0x308fe0100f9f60fU, 0xec13f4fae91af9feU, 0x14f31903dd0b15f9U, 0x19f10800f4f9f411U,
  0x1d05fd0fec010307U, 0xf71727f2050406f2U, 0xe80d081a090a04U, 0xed2effedf5f1f7eaU,
  0xf9ecfdf310e8f905U, 0xff0ac30626f8f316U, 0xea11f4efe4e7f706U, 0xe8f70aff130ed724U,
  0xa0be0d10bf5000aU, 0xfa4e0401cf021deaU, 0xf8fef1dac6fc02f3U, 0x13d6f8ff0bf4f8fdU,
  0xed0704001c07faf9U, 0x51d09fdeff8e9ecU, 0x11da0e140af7f8f4U, 0xfa050c01021def17U,
  0xf011fc02f10ce507U, 0x1512f00a050fe8ffU, 0xc14de0211fefef7U, 0x10e05fe23273114U,
  0xe40e0f120622f0ddU, 0x222bfdebf9e70fe4U, 0xfc04f61a1f0e1823U, 0x6ea13f61feefc07U,
  0xf708e305f509f908U, 0x8f0feec03fc080cU, 0x5fc02f90aeef60fU, 0x30ceaeafce3f8f6U,
  0xeef0fcfc2a0313baU, 0x12f801b80dfef8eeU, 0x70303010208f717U, 0x811fdd11de2e5fbU,
  0x10f050212f624e3U, 0x3e80b1a0b20f4ebU, 0x3090601fb13140bU, 0x709f90dfa0aebeaU,
  0xf8f0d70d000a0019U, 0xf4f2ffeef5092208U, 0xdfb0eff14f9010cU, 0x261b09dfece4091dU,
  0xb0fdea18e5e6cafeU, 0xe5020092e100ecb4U, 0x11032208fefaf405U, 0xe21213e017e5041eU,
  0xf812e7dcfcec19d9U, 0xe10dd1cae7ea16b1U, 0xf50f2cfafc1b0a2cU, 0x620ff0a1a080efaU,
  0x1c06090deb0a040eU, 0xeefcf903090c050dU, 0x90bfe111b08080eU, 0xf30604f5e8d6f2f6U,
  0xd812da0de6c7d3feU, 0xebeeedc3f1f41cdaU, 0xf00019ebf60be3f3U, 0xe7040a000de90fe4U,
  0xbe2f1e802e0f814U, 0xc0f8ffd2f7000ffdU, 0xf0fc24c3f2f3ffe3U, 0x5fc0ae6100705f6U,
  0x1a030208fa09eff9U, 0x9030a250fe32aU, 0xf9e6de1af3f7fefcU, 0xf70ac9f9efec0fd1U,
  0xf09e07ed0eee08f2U, 0xc8ef00f4f10aefU, 0xd909faf6f2caf1ceU, 0xf300d10e08e009a2U,
  0xb9f1f80c07e3ebU, 0xfbe2ddf7f9f209ffU, 0xedef1203f8de05ecU, 0xd7f4d600f1f101d9U,
  0xadfe9ccfffde507U, 0xddbef7f70d03fae5U, 0xf9f4fa01eb0807d7U, 0xbfebfd9ecf5f8bcU,
  0xeab1e4de04fc0e1dU, 0xf21c01ef10fbfc05U, 0xd10a0e02fafe01c9U, 0x27e6e8f7ecfee3cbU,
  0x12a2ecfa131a1d0dU, 0xfbb1f1ff23080d0dU, 0xf41106220b04f5bcU, 0xc21f902fa1b05d4U,
  0x1ce20a1720f00a07U, 0x7ed0a0e0419ef12U, 0x1ce81c151a001703U, 0xe823bd2202f40297U,
  0xcaed04f2ffddefcaU, 0x9de11e609f61abfU, 0xf2f611eaedf6ff1fU, 0x308e8f31bf40dc9U,
  0xecd3140506eb0814U, 0x26c0f1e50804f4e2U, 0x1d100a09300e1813U, 0x2729180c26fb0902U,
  0xcfd0101fd01e8fcU, 0x4fc1d06fe051400U, 0xb07f71b0b0df419U, 0x119231308f4e0f8U,
  0x41afc100f0addf6U, 0x507f7f42110e0f0U, 0x300ff06f3050e1aU, 0x401151621ff0602U,
  0xf91ae4070f00faf3U, 0xe71bf3e40918edfaU, 0xf40cf4111a090815U, 0xef71e121af30a17U,
  0xf12020fe21709fbU, 0xf909e9e622170108U, 0x1600031007fa0f02U, 0xfe0bec0aeef5dafeU,
  0x9020c142ceaf9ddU, 0x14eaeafb051ce90cU, 0x1e0e1cf3e20407f0U, 0xd519d60ca220ca06U,
  0x1be72701fdd613f0U, 0xf2ed9f03b6f6edffU, 0xe21dfce41cb1f1f9U, 0xe820ea02d0fee6faU,
  0x130817f509ed17fbU, 0xe70ab6eed2e1e1f2U, 0xff1712e704ebe612U, 0x2f4ff0afc05fbfbU,
  0xf304f0f8fbf7e521U, 0x1507d40815f1f1e7U, 0xf4ff04090307fa05U, 0xfc09fff9cf23f0f1U,
  0x1f0c2ee405f23109U, 0x609d7fcf6eed8fdU, 0xa727f40601e2cb22U, 0xfd1f1703ee0deb0fU,
  0x140902e6ed0410d4U, 0xf503fd0ec7050d00U, 0xc8190de7eef5df1fU, 0xe537f60ee0faf114U,
  0xb800001ed7bfe7e0U, 0xc510dc99e8f807b5U, 0xcd0a2bd0e0dbf511U, 0xdb1a05e61ff316feU,
  0xe013d9fff2fa1314U, 0x30710e1fdfd21e8U, 0x3f0f00e2e70f120cU, 0x27fd110cfafb0120U,
  0x280dd506ff0de7f6U, 0xefd150e020bec02U, 0xdf4d0ff1d0b110cU, 0x60beb0000e90d0dU,
  0xde0636e7dafed9U, 0xeb00e8fafbfa0802U, 0x20f31fe32904eaf9U, 0x315dedd1a0ff9e0U,
  0xf6f20ddcf80d111bU, 0xf3fefdf9f7fc09f4U, 0x1b08fa0211ff0afaU, 0xaf2110705f9f803U,
  0xe4e8080018f9fc1fU, 0x1705f6021304fdf0U, 0xe8f7f4230e0c00f6U, 0xfce8bb18ece8e4e8U,
  0xbe3ea05f8dafbd5U, 0xf0ed16fbf9f4fa09U, 0xdfa19f7fed912cdU, 0xed00e4280ef7e7c9U,
  0x89e0ede00e6fdf2U, 0xd2f2f8f9f001000fU, 0xeef40ceef5ebfbcdU, 0x109c8040aeaf6e9U,
  0xfee913f50b050704U, 0xd03f7edef000bfcU, 0xedf7f706fafe18deU, 0xfbfed6e5e3121d02U,
  0xf60df6f1d90220ffU, 0xebff2edc22e00eefU, 0xf61f2115f601fc33U, 0xe2f5eb000c010700U,
  0xdffbd6ed020f3012U, 0xcf330f3fed61cfcU, 0x80b13f0ef1c0d0bU, 0x22e20b0016ed1805U,
  0x250dda11ef0518feU, 0x28011b0e0814ca01U, 0x19ec01240423021fU, 0xf009e10d1aecdcf3U,
  0xedfefc09efed19fdU, 0xede711dff2eb2207U, 0x1000f9f5ec08f8fbU, 0xfe03ce1916e7f7d5U,
  0xe4eaf2eb17e5e6f9U, 0xee7f9ea0ce80201U, 0xee021423eaf202feU, 0xfbfce6fc09e802d0U,
  0xa00c8fff1de09efU, 0xe9f6f40012ebd100U, 0x1b0cfaedebe8f6U, 0xf61306ef0e10ea03U,
  0xff0fd307e10018faU, 0xd2015def1fe2402U, 0xf311ff0b01f705f5U, 0xe0e7dbffeb07e0ddU,
  0xf4a2dcdb05f3f1e5U, 0x17cee1dfe1020505U, 0xe7192017e8e2fdcfU, 0x5eed201f8e20285U,
  0xf6dee6d301f7e5e6U, 0xf1a1ef100f04f000U, 0xfafef2ece70301f1U, 0xe307f701ff180eebU,
  0xe90608feeb081ad3U, 0x21f016e8fbf610f0U, 0xe5030501f010fcf0U, 0x14faef141ce3ed0bU,
  0xee0dec1be200fd19U, 0xfe0107e907fa19f6U, 0x11e0fcf8fb150c03U, 0xe1eee30c1dff1003U,
  0xf1efeed9f500f5ddU, 0x2df0d0001d90f0bU, 0xf4fbffeaecfbfc04U, 0xf514f90303f916U,
  0xdb1314f62e12e905U, 0xfe07e70ee9ebeae4U, 0xecf718f8e70ef7dcU, 0xee507fffbe0fa18U,
  0xfc09f609d301d413U, 0x705fc1e0014e304U, 0xf7e1e2031b11ff02U, 0xe8ef05fd102302f4U,
  0x2eb1a12f6091116U, 0xdd00d24e709fb28U, 0x2fcf40018f409faU, 0xfee2f5fc0e0a1302U,
  0x22f42b02e5080af2U, 0x204f50b0bf019feU, 0xec110bf110fdfdf6U, 0x18030f0f0ae60dffU,
  0xee020911d715edd4U, 0xe80d17f22118e5feU, 0xf9c3120218fff822U, 0x1a0b1e00f3e208feU,
  0x5f9f6110303fb05U, 0xbd1f217f2f4d308U, 0xe6f50402f5fbf605U, 0xf8f5f1effe12ee05U,
  0x80a0bfbfa0ae228U, 0x7f7fc07fe051703U, 0x11fae6edf510f1ffU, 0xfa0fcee60d05eae7U,
  0xe6e4f40fe6ed0408U, 0xf0f7fbd70ef6fde8U, 0xe0e8ef0fe2eff8c0U, 0xcf0befc2dad61ddeU,
  0xd6f8f4d1f3eff6e5U, 0xdcfde005e5e0defbU, 0x9ef0fd8e9ddfbU, 0xffeee6f415f809eaU,
  0xf6f3e6f5050c0612U, 0x14f113d500ff16f1U, 0x1b050d111b0f0501U, 0xa1fddf406db0fc0U,
  0xfef21eeeffee14e1U, 0x6d7fddf200201fbU, 0xd0e10080af5f710U, 0xf106d0e1e0effff1U,
  0xedd41fd0010b17fcU, 0x3f2d5dad2f204ecU, 0x7f907fcfbd017d9U, 0xbf00b0208140a04U,
  0x1501f416dbf42710U, 0x9e924f90125f016U, 0xf5f0080ef8ea0b03U, 0xef21110efb0b0204U,
  0xf805061f03141309U, 0xfbf903e9efec0803U, 0x719200c11fc08fdU, 0xf711eb0401e9030fU,
  0xece91df7fd130623U, 0x1bf6fedcd0f60d0dU, 0xea2816f6f9ffe802U, 0xff150bdccde118f4U,
  0xef1dcbf8faeb0517U, 0xfedd1dceb13f902U, 0xfc14d8ece909d5eaU, 0x10e8e6f3fac30d9fU,
  0xf9cadfdaf3f0f5ffU, 0xf9e718c5e6edf20fU, 0xf30b08f3e6e6f822U, 0x101f1c01fc03f7f9U,
  0x271125dbfee6e60bU, 0xe01fd12fe08f6e7U, 0x16f42101f10021d0U, 0xfcc2cbd0040109e6U,
  0xeafa0704ceeafc00U, 0xeff5d4ea13f6faf2U, 0xfeeec5dde00ffa0cU, 0xf17d51be9d40ac0U,
  0xb507040ed4f7e9U, 0xeaeb0cc5e21ae703U, 0xfef190c120801f8U, 0xb2fef180f0bfe01U,
  0xfcec08fd1c0b0519U, 0xff1c03d7f71510f4U, 0x23f0260018f909d3U, 0x1dbe2eaf602eb15U,
  0xf1f3ed03eafb04f7U, 0xfbf9faf4f1f0daf9U, 0x4eae3e1fbfdf2ffU, 0x50ab203e4f4efc4U,
  0x27c3e602260717f3U, 0x1bcad1f200f4f105U, 0xf9170d19e9de0ef1U, 0xf06f7f8fcff0ee7U,
  0x3d81b07d9190314U, 0x618160cf109180bU, 0xf61003152812f4e5U, 0xea3607170805eaf1U,
  0x9ed0804fed1e603U, 0x1b1ef8010df9fa09U, 0xe014fa0bebd1f50eU, 0xecf4f4f1f611f404U,
  0xf605efef08f6cd1eU, 0xb0d02ebf5f51de3U, 0x1bf707fbe9120a08U, 0x12e3fb1b0c06e5faU,
  0xf70cebec09140a1fU, 0x1ff1ff310fc06ddU, 0xfcd5ecfbea0015f1U, 0x2c509faf219ff31U,
  0x2b0110ff0227ea2fU, 0x31a15f20afc09U, 0xee11dc090df714faU, 0xdc0dfa13e8ef05U,
  0x609f0ff1509f7eaU, 0x1e0008f2f503ddebU, 0xf7c8dd35fafc01f8U, 0xbfa01e723dd2105U,
  0xe0107e924f411feU, 0x19030524cefde71cU, 0xeb09f808ed12f012U, 0x7f3100bf4ecfd00U,
  0x18030ced03f7011aU, 0xfcf90d091805fafeU, 0xf9e9e6070d1105f8U, 0xecfed001e5ded8fcU,
  0x803f90cf6effd03U, 0xe80bf4e306080a06U, 0xf4090bf801eaf2f6U, 0xe512ed0bf5ed0afcU,
  0xf30813e5e4ea0a0eU, 0xf516f6deef0314fdU, 0xf501fe01ff110609U, 0xf7f608000c04e60aU,
  0xf216f11af509edd9U, 0xfe0e0f120f0608eeU, 0x26fafaeeeb1f2004U, 0x17ffe402f0f8ecf9U,
  0x40df506e7fedff8U, 0xed10ead7100908e0U, 0x1724141020e4e5f5U, 0xd1f6d2f7e5dff3dbU,
  0xfbff8cff7ed14eeU, 0x1d3e7eec806f609U, 0xfc110110e5f3f8c1U, 0xfed31afcfeeff10eU,
  0xf91e160bfff4e404U, 0x204fafc0213eef1U, 0x1afe5df01060af2U, 0x27faf112edf2e1faU,
  0xfe0a181fd805e124U, 0xf7fef2ec1315f308U, 0x1b0f1c131709e40cU, 0xe8ebb50f080301d4U,
  0x1a0104e70d02230eU, 0x1e0ece800f1fdfdU, 0x130efc00f70f15fbU, 0xfdf0ecfd21f6fbffU,
  0xf9fbfde515fa1206U, 0x6e4e505f600060cU, 0xf708d603241314f9U, 0x14ef0cfe240819e1U,
  0x3f00a1903ecec03U, 0x3ee03162b14d212U, 0x1ac3ec02fefbf309U, 0xf0a06100a0c0704U,
  0x13fb1614140702f4U, 0x506111213f8db18U, 0xf90401fe0ee30e03U, 0xf809f7fb0be5ddc4U,
  0xd8e20d0107e2f4f6U, 0xfd9becf1fcf4fbecU, 0xfef80be1ecede8e6U, 0xfbe50f0019f9efbfU,
  0xe1b7f8051021ceffU, 0x10fa150b0400160cU, 0xf8f905fbd010e1d7U, 0x2ef10170ff404f5U,
  0x60efb12ef08fcf5U, 0x1df70a14fee71e08U, 0xfae0f7eef50e0318U, 0xd9ffd5fde92d1bd8U,
  0xacffa0d1af401feU, 0xecc9faf8181a1cfdU, 0xebf505ef2df604ddU, 0x1be8e50c00effcb1U,
  0xffb5ef0a0c19f2d7U, 0x12f20af711fdfff8U, 0xd070d0d001a0505U, 0x17f314f905e7fbeaU,
  0x401ff11141cfde3U, 0x5f80c2612e000fbU, 0x11e90509fd0c0102U, 0xd302dbf9f40403d4U,
  0xf6c511081702f1d2U, 0x17d6ed12d0e6070aU, 0x11eb081501f80be0U, 0xebeae3f70deff7acU,
  0xf7c40df4f2f01d04U, 0xfdf1edeef00aebfeU, 0x11faeafbeb03efe4U, 0x51acbfbfc0c2704U,
  0x1f7140ff916ff1fU, 0x4de0ccdecfb12e1U, 0x19f9f8ee02090d1fU, 0x100e0f100600eb1bU,
  0xd711fb10f6fe02feU, 0xf6f005041b0f2603U, 0x19250ff20009f902U, 0x23fc1ce50edd1a0fU,
  0xf017f504f007dacdU, 0xfc19f8f9ff07f9edU, 0xfb05061b041117U, 0xeb06f511e4e310ebU,
  0xe1dfd9051dfbea03U, 0xdf6f4f7f5f915feU, 0xa060b0200fffbd1U, 0x5f40def09f5e314U,
  0xfff6fcfbf9010de8U, 0x16f4f7f20a09fef1U, 0xf2edeb0103050b03U, 0xf9fdf1fefdd0e918U,
  0xa27f0e5e70101U, 0xf60ef10016010e0aU, 0x22fdfc16260d0ce8U, 0xf11dfcedf00ae500U,
  0x4c7f4db08d3fde0U, 0xf06eedd07f325efU, 0x13f509f9efea12d3U, 0x3f5bf0ff9d7f00dU,
  0xe7e317e0fd0bf5e8U, 0xf7e6ed1508f90216U, 0xe4edf60f07fdf303U, 0xd302c4f2f702f4dcU,
  0x2df10e819ec0cfaU, 0xfde7231bf6ee110dU, 0xe215f2fdf102fee1U, 0x2fbf5f00214fdccU,
  0xecd803feeef9feeeU, 0xf5dd0beae4dcf6edU, 0x6050b11dfe2f9dfU, 0xf6fe0813f30af019U,
  0x305f418f90202daU, 0x7020200fa1efc0eU, 0x4f901e10c0619eaU, 0xe1e5000cfd0edf22U,
  0x11f02912ea150aU, 0xf40f00180218011bU, 0x1d01f5d70b141413U, 0x2dee512fe1607f3U,
  0xe0f0dd10fce6f808U, 0xf7c9e901f507faffU, 0xe3f0140d0bff1ef5U, 0xf31af92dfddedffeU,
  0xe1fbfe0fe9e0e4d6U, 0x1ff0bd50403f8edU, 0xfff2f81517060ce5U, 0xdbf40d0119c5e819U,
  0xe402d5e516eae9d5U, 0x2e22f515cbde1dd9U, 0xe9f50f11d9000cfbU, 0xf0e706ea1debfef3U,
  0x10103e20bedf10aU, 0x1eee061c0cf7030eU, 0xeff0faf6f30fed0bU, 0xafde3f8060202e8U,
  0xfef0fce901fc04f3U, 0xef1eb070903ebf9U, 0x1e2e818dbf1f2deU, 0x2e0f3f60cfa19f5U,
  0x22081ae8ec1e0710U, 0x1f7f9f0fbdd1fe2U, 0xebf9f8f0e8090e15U, 0x1cfc03ee08ef0b03U,
  0x60712050d14dd0aU, 0x11150ee72109fceeU, 0xfd03041c0818e80eU, 0xafedc01faff15d1U,
  0x6daf9d3ef0403fdU, 0xfbc2f1fb040506fdU, 0xfd0bf70d0deff2d3U, 0x508c3220afdfdd8U,
  0x1cd612f212fc0509U, 0x4d5000b07fcfc0fU, 0x125ff2011fe14ccU, 0xf5fbbdf7fb020dd7U,
  0x11d60be602020b0aU, 0xf207ee09fd1af6U, 0xf0f80808ecfb06e5U, 0x300e2020e09fdaeU,
  0xf5d013f8ff071914U, 0x11f303fff5fefe12U, 0x6ff02130e0713dcU, 0x170bd819fb0effe6U,
  0x1af2c0f0d1017f5U, 0x2adb0a2df417ff0eU, 0x717041c1ffd10dfU, 0xf403b5f00df71befU,
  0x3bb05f5070b08eeU, 0xc008dc1f04f606U, 0x21110507070df8d0U, 0xfb0aebfff1f6f1deU,
  0xf6cce9f1fb04fce9U, 0xded40403e81b0101U, 0xf010ff07fff30fd1U, 0x30dd401fc13e4f6U,
  0xebaf9fcfa000116U, 0xe9f30bf903fdfefaU, 0x90cf80701f9f7b1U, 0xf0efb0ffebd9d8e5U,
  0x2befdfff40509f8U, 0xdec805d8f6f6fce9U, 0x16ea0c09ff16f7b6U, 0xa14eef1f8f4ede3U,
  0xf0f115d8f608edf3U, 0xe2defee2fefde3f6U, 0xf4f3f2050a20fee0U, 0xf5f50912010204e4U,
  0xedd70bd9f00507ceU, 0xf202f214e5f5fe2eU, 0xbf20a16f5f11dddU, 0xae611fbe9cf0a05U,
  0x10fad8f9f9fa0beaU, 0x1bf50bf6091bd109U, 0x11d8051b0705fa0bU, 0xe80fdf10f70fccc1U,
  0xfbb415fe1df506eeU, 0xddbe50807eb0018U, 0xf3fef004e3f9ecebU, 0xe90bd90509191016U,
  0x1f5f9c1e9071317U, 0xf1031a11f6fb3301U, 0xf42105f8f6142207U, 0xfdd9d9fb07f904f4U,
  0x24cfebe016eff908U, 0x1bf0ff1e12facd17U, 0xe9e001fbe9f5ebecU, 0xe9f9fe030bfad90aU,
  0x13f415dc161ae3feU, 0x4e9fc0be411f4U, 0x3de13f8f9e5070dU, 0xfff90bff0efb251dU,
  0xda2000fff71ffdfbU, 0x251d0df1f50b00fcU, 0xed0dfa0ae315f00bU, 0x2009f922f8df05f3U,
  0xe4d5eecef9f7fddfU, 0x226e4efe0ea2318U, 0xf1e70a0f0ae413ceU, 0xb10c0ebe110f5f1U,
  0xfad7069114faf807U, 0xe1f8fc09f6f0f1f2U, 0xec26f5021aeb0ee7U, 0x18f5f2fc1de30304U,
  0xea11eb0bfa0d1707U, 0x6122bf2f411f910U, 0x31eef8040af91befU, 0xfbee0809f2f11206U,
  0x11f8f7ff0eed0616U, 0x8cd0e150ce9f511U, 0xf90af9f1f10ff5e4U, 0xcdc6dcf9f70e27f9U,
  0xe7e713ef1af5dfd3U, 0x1021ffde1ed27ebU, 0xcf050b01f82217feU, 0x1202ce0e04b8d8dfU,
  0xf2eaf8bff7efcecdU, 0xf6fbeffbe40dc410U, 0x2c5f1fc06e9e0f5U, 0xe51501010e0602d8U,
  0x525fad4e80afefaU, 0xf6f70eff1c0d0ff0U, 0x314fdfcf10bfcffU, 0xea0a13ff091b30f5U,
  0xf3012812fe09e7fbU, 0xffd0fefeef1fceeU, 0xf4f209fa00071323U, 0x3e06d9101bef0d0dU,
  0xfa18fd1ede16cbe4U, 0xef09ff021bf4cdf9U, 0x1f7130911170f03U, 0xddfce0ff08f4dff7U,
  0xf3e90a040af4dfebU, 0x15e8ffecf0fbf01cU, 0x17e3171908ec0c06U, 0xfa00f6f5f1faf9faU,
  0xfdf4ff02f9fc01fcU, 0x808f8fcf6fcfafbU, 0xf9fcfff700f6fb04U, 0xf3f3f80509f905U,
  0xfcfffbf5f5f3feU, 0xf6f8fcf302f203f7U, 0x7fb01f6f3fffbfbU, 0x7f4fefd02f8fcfbU,
  0x1fbff01fbfcf804U, 0xf8f9f206fff40004U, 0x2f80200fef60202U, 0xfd0602f8f2fbfc04U,
  0xfe0205f7fb03f8faU, 0xf609faf208fdfdfcU, 0x6f4f9f5fb00fef9U, 0xf3f4fcf4f9faf4feU,
  0x4fbf4fe0507f502U, 0xf7fb0804f7f400feU, 0xfaf9f7fa05f5feffU, 0x101f4f1fbf80503U,
  0xf404f7f8fdf5fd08U, 0xf9f1f7fb04f804U, 0x1f5f7fe07fff6faU, 0xf2f802f9f6f60202U,
  0xf9ff060201050606U, 0x503fafefcf3fafdU, 0xf600fe050203f602U, 0xfbf90001f500f3f4U,
  0x4f304f5fc01faf6U, 0xfe0602f6fdfdfcfcU, 0xfaf70202f4fb07U, 0xf5f7f9f409f5f600U,
  0x40405f4fffffd04U, 0x202f7fef9fe03f8U, 0xfd0801f307f5fff5U, 0x5f8fe09090bff03U,
  0x90d130d0605c911U, 0x5f30e18f8e31cf2U, 0x120520021104f906U, 0x70af61115d6f410U,
  0x41a1a09000a04ffU, 0x8e4270ae9ffe709U, 0x1efff602ff0e060dU, 0xf5feffefe8faf9U,
  0x1e5f7fa1cec09f8U, 0x40efceedc0cf703U, 0xfef8f7030507f2faU, 0x14fd0ef50e041320U,
  0xdf1b1709e3f6f8feU, 0xa2df21507dce3f6U, 0xf70af8020616da2cU, 0x11ef11ea07011421U,
  0xe9fcf6e9d411ed15U, 0x62bda16f4d31407U, 0xf434dbdff2f4f5faU, 0xecfc000804120aebU,
  0x4f407e513f3ff04U, 0x8f40ddafafbfb0dU, 0xbe90df8f0eb0aefU, 0xe1e2020ec009f0e1U,
  0xbf8e601a3de2b06U, 0xafbe600a1f518U, 0xda101de120dff30fU, 0xd9eedcedfe161400U,
  0xfbf604dad6e83504U, 0xf20c2ebc1be23ebU, 0xf012ebd8e5030915U, 0xfbeaea0a08040707U,
  0x29ea070107faee0cU, 0xd00c04f72102f2f8U, 0xfee3f30c1afefb15U, 0x5f20bff01090216U,
  0x40307f6fcfb01f1U, 0xf900ff1a0ae9fc2cU, 0x22f6e120100d1aU, 0x70e080def180526U,
  0xf7f1fdfa070f0300U, 0xa37f00e0e1ef819U, 0x2edf8f6f30be8U, 0xe000e250012f9f9U,
  0xfb0ffe0204f71a16U, 0xf40b050209080613U, 0xaedfc0b0cf30cf5U, 0xff7fcecdfedf0f4U,
  0xe5060a18e80d23deU, 0x1fafae300d3ebf1U, 0xeffe0f1feff5d0fbU, 0xb71712db01f6e211U,
  0xc6f40fa920ecf62bU, 0x1127d1f1e9c0f1deU, 0xc3fc0602f2f0d812U, 0x30509f3f8fe0e0bU,
  0x80e0b01030d11f1U, 0xff2609fe11f900f6U, 0xcfbe8f1fb0bdd01U, 0x2f403f40e0cfbfeU,
  0xf704311de7f1eefcU, 0x110e0dfcec0de9fdU, 0xa060aeeee06fe05U, 0xec1311e9e7ff2b00U,
  0x181c03f0f90c00U, 0xe60400d9d3eefbeaU, 0xe00ffddae2e0f915U, 0x19f6131f2af21107U,
  0xfd09ff0d1f0d1efaU, 0xf80f0ffe0e03e004U, 0xf4fe020d12f4e5ffU, 0xf401f702f60802f7U,
  0xf6fdebf3fefdfdfdU, 0xfcee0b0ffed719eeU, 0xef19ea0bcdfff507U, 0xd0810eef3eb0918U,
  0x519e9090d1410f7U, 0x240f22fef10ae005U, 0x17ed0f08f8161c13U, 0x602f8fee8e0fe08U,
  0x1504ea1df8fdf511U, 0xeffef40524160802U, 0x92a01fcff0ef3f4U, 0x1ec8d50e10eb03ffU,
  0x2fefd14000cfe2aU, 0xf2013aed14e417fdU, 0xf7dbdaeee71cf1ffU, 0xff06b805dbcacbfcU,
  0xfa0a010809faf81aU, 0x2ce4f8eff6f10df7U, 0xfc051e051dc8ffdeU, 0xf301b904fff1d4f1U,
  0xcff6f010ececffU, 0xe1fcf3060ff90700U, 0xf0fff300fce8ffffU, 0x2ae4f8060aeb1b0fU,
  0xe508f6f00f03f403U, 0x812140c2510f1f4U, 0xae3fcffed11fb0cU, 0x80bf11edc0c07f9U,
  0xfee302fbf6f5f705U, 0x9ebbb01ebe6000dU, 0xd5f412f40ac7eadbU, 0x3e9dbf0f4e4dcecU,
  0xe4bff41a1511f2efU, 0xe905f40208f5fcfeU, 0xeffcfc05ee03fbf0U, 0x1ef4030c00f2f8fcU,
  0x1106e3fa09170205U, 0xbfe0102f200e1ecU, 0x3ce9f7f91f2321f1U, 0xddf71407040ef7f3U,
  0xfa0be2fafbe32af7U, 0x631070d0bfcd905U, 0xf8ddeef7c414e618U, 0xf707f6ebffda0815U,
  0x218e31601051af2U, 0x1405f016fe0ffe0aU, 0x101706081a1adff0U, 0xf816dc0210070308U,
  0xf8f5140719eff013U, 0xeae3f00b0ef5dd09U, 0xf8070ffdf8e1fdebU, 0xdefe03f7091eebdaU,
  0xec1111ebfbfe241fU, 0xf03222fbe6f10c08U, 0x18edfcdcf8e60df7U, 0xaf2ff1df6ca17U,
  0x13fd1211f4fc1203U, 0x18e30f17fe070af3U, 0xf2e212f516020a01U, 0x5f205e1f7fde815U,
  0xe81bf9031a0202f9U, 0xf6f5e00903e60efbU, 0xec0a121008e302daU, 0x1901d70702fefbf1U,
  0xff0dffe71022fce3U, 0xe4fb16fc0214fb00U, 0x22e0f00d0205ff08U, 0xea2be01aecee1bfdU,
  0xf7e5fdfbfbdce63cU, 0x200e6daeafc04feU, 0x1209080602f10701U, 0x70dc20af8f8f2f2U,
  0xfae001d9f508f1f2U, 0xe7c8ff00ded8f0f8U, 0x1308f8ff23fddcd8U, 0xf6e708ed09f1b4U,
  0x7dbe1d6faff02f6U, 0xedaee7f50b020009U, 0xd8fdf1fe02eb05e6U, 0xf006fd120b1d02edU,
  0xf7e1f2f313e9011fU, 0x1a140018f4fbf71bU, 0xf6f7f2fff7fbfbf4U, 0xdfdbfe6c317faeeU,
  0x8c1fdc8f0f00f13U, 0xf9e8faf40bfcf8eaU, 0xee07efeaf5f2eaccU, 0x7e70516fde308ddU,
  0x1cab17d513f40600U, 0x16000839dd060d23U, 0x4fedcf1f4fe1ad2U, 0xb040b220c1004c5U,
  0x1900020102051b20U, 0xfd010726f60b1125U, 0xdef811f4fd0619U, 0xe500c803d8e8ee99U,
  0x11d702f6d4c7fbd6U, 0xd9f3edf1080102fdU, 0xf3f9fe1be207fcU, 0xf91ddc0cf3e7e9deU,
  0x8ba16c6f80dfddaU, 0xfef5e0bff2f517fbU, 0x6130d1fe7071df5U, 0xf0d140124f8fce4U,
  0xfcf505f3021b291eU, 0x1de8050002eaf903U, 0x9fef90c07fa0d05U, 0xfff2d20f14ce04ffU,
  0xed08f81be20def0bU, 0x6f7f9f4fb04dae7U, 0x1f00070f0904060aU, 0x306fa1c25fe17f2U,
  0x20009d208092300U, 0x11e213d72ed105f5U, 0xfd211509fbeb05f8U, 0x506e8f80cee0310U,
  0x200f12dea1528faU, 0x5b91cf31908eaefU, 0x1a030007e7030313U, 0x6e50b09fd0a0b13U,
  0x19f9df14d407caf8U, 0xf1fcf10be222fd1dU, 0x1400ebe20c050c07U, 0xf9e4d3f9f305e7ebU,
  0x5e10de01013f5deU, 0xec06e3e90703190bU, 0xf9f8f2e11bde07c7U, 0x11efe0090af2e9f4U,
  0x8d0e7ee0efcf2d1U, 0xf9fefbf614f90800U, 0xfae6e60ef3e309c1U, 0x9f7d50b01050123U,
  0xfce8eb0003fcdbfaU, 0x1d1eb0a030e0901U, 0xf811e71c1d08ede5U, 0xfee9cd08effa1ff4U,
  0x1dccff0d02e6ed0bU, 0xe5de0ee9fa06fcecU, 0xd8e0f7fcfe1bd2U, 0x6f0deffe5d4ec03U,
  0xef6f8ce14021208U, 0xd0dae4ed09f8f201U, 0xf4f3ebe9eff10cffU, 0x505ef01eb0ff0feU,
  0xfbd9eafbe1020415U, 0x5faedf3fcfa03eaU, 0xf91808000bf6e8f4U, 0xfde70af5fe0ae809U,
  0x8ff0a16dc0a1b3fU, 0x1d0824ffeb14f304U, 0xeffdfddff091af7U, 0x804eff206bfeafdU,
  0x711fcf5f5f30409U, 0x16e625f3f5e9d6e5U, 0x21f9e71e0405f835U, 0xef7fae414f10410U,
  0x1e006fa0305f0e2U, 0xfedc1b22fd10f615U, 0xf108fd18f9f4fa09U, 0xffcf17f7fee50111U,
  0xc0df203dafa0f00U, 0x1608240ceffbcefbU, 0x12e3efe80bfc1f1aU, 0xf20a02dfcdfcdfecU,
  0xfd0408d3c8c403f2U, 0xe302f8d6cfc715fdU, 0xbf28fe0926c7e619U, 0xede8fef607f8f40fU,
  0xfb0012f6fef4eaf6U, 0x1fcdde8060117fcU, 0xfd02040225ef1209U, 0xd4e9eb29100e10e1U,
  0x17e9f92df4f9f92eU, 0x1d121b16260bfd0fU, 0x15c5f8db0ff91631U, 0x403040fdd1304ebU,
  0x1df223e8070b072aU, 0xc4dedfdf3ef27f7U, 0xd4150a121af00e15U, 0x1f0ff5e80bf7e806U,
  0x2092efce70bdf26U, 0x311cafc0322f8eeU, 0x70602fb0309ed08U, 0xccf3f00e0107d3f2U,
  0xf7e4f4f615f50006U, 0xebff020bfffc0115U, 0x3ce0de7b6fb20dbU, 0xf503dd25e7eadf0aU,
  0x4c1090cfffc14feU, 0x405f411ffe00afdU, 0xf81504e4dd0212beU, 0x190efe2319dbea17U,
  0xed04df220321b0e4U, 0x411d0f7f50cffd8U, 0xebfc0b19160b01e3U, 0xe003b3ff15effdf4U,
  0x7effae60bdbef07U, 0xf8d2f1c5c0ce0dccU, 0x110a1019d903f615U, 0x1edbdf20019f7ddU,
  0xee130ac709df1c07U, 0x1f6f4b81dfa01c2U, 0x1414ed08030efc1cU, 0x1bf0df1027f70f02U,
  0x23fb32f5f1160f18U, 0xffd070f1c00f41eU, 0xec12e1d51709f923U, 0xf4fc00ead912f4ebU,
  0xcf6130f0409230aU, 0x7fe0101dfe80714U, 0x708f5db07f0fc19U, 0x12e20c11fe24e5e9U,
  0xe314ea05dcfc24f2U, 0xede806291521152bU, 0xe8f3fdf1e3dc0d12U, 0xeefa03f5fcf8f7efU,
  0x7fafbf50b03f1ceU, 0x51ceee7f7e7ef09U, 0xf30d1af30de9f218U, 0xfffdb109fae4f1edU,
  0x5f713f41907fbd4U, 0xf5b9ebf917e60afaU, 0xe5ec0b0629030202U, 0xdc11f5f5fcd4f4d2U,
  0xeef414bff7eb08e0U, 0xf7faebfbebeeffe2U, 0xf8fc0213f90a1d00U, 0xf7f8f20a17faec00U,
  0xfff117f8fff8fe11U, 0x1613e90bff10eb24U, 0xf8f5fafff7fc1307U, 0xe21af726fb1a1cf7U,
  0xdf3fd0f0b0304f3U, 0xee0cff1626030210U, 0xf3060dfbf0e108ffU, 0xb0ce409f920f4feU,
  0xfee606fbde080ff7U, 0xeb19f7ebe90a1308U, 0x17f9f8e017f50e14U, 0xf512080e00f112U,
  0xf4fce6dffd020013U, 0x171005f9fbdc03f8U, 0xf06f91106f00aceU, 0xf3e81bf41111030fU,
  0x50c030f0408f4fcU, 0xf0000291e0d040eU, 0xfc0af0f60711e60aU, 0x17e90cf30c371dfdU,
  0xf707e027ee05010dU, 0xfce9051cf00ef521U, 0xf3fd15fd1009f21fU, 0x917fcfd08021df2U,
  0xe8faff051a1d14f6U, 0xe9ee1bde19fcdef6U, 0x16f5f6f10f05f9e5U, 0xfe1afff3f3fce311U,
  0xf8f6e709f0d9dfU, 0x7fed0060ce60ffcU, 0xc3fd1a0102ecedefU, 0xe5020dfe2212ec01U,
  0xddf4e10e06fe12d2U, 0xff1a110b030e25f5U, 0xf0ed04ccecf410faU, 0xf3fd1709fb03U,
  0xf4dd15f0f8f5fdeeU, 0xcf4f4071809f4f1U, 0xec28f1f603f0fb0eU, 0xec11d6bccdf8bae1U,
  0xf3f1001a13e21fd3U, 0xf3e7d702f7ddcefcU, 0xda0c190cfee0fa0aU, 0xce06fcdb0df10308U,
  0xdcf7e6f51bf7e0d9U, 0xcc152b201128eff2U, 0xe7ebe1d3f0e7e9fdU, 0xdc13012e230ef624U,
  0x4f5091d2510f4f7U, 0xb22d62afe122507U, 0xe528f7e5de1a070cU, 0xf71c14ec09e104fdU,
  0x4022010f8d2f906U, 0xe6fcdcca0213d2e1U, 0x60010e8c6d0de09U, 0xd328edfbeae9f103U,
  0xcbebe70436dfbe17U, 0xc6f3ede817e9eec9U, 0xd1f32ec3c818d4f5U, 0xfef9170e1804f9fdU,
  0x10bfd0b040d0df1U, 0xfffdfefde6ffedf4U, 0x21150507f5fbfbf4U, 0xf6df0afff6f0f01eU,
  0x40816fcf704e021U, 0xe5e3f3f7f1fbfef1U, 0x706edc8f6fcfb12U, 0xbd2051219fbf4fcU,
  0xfcf7f5fbf40ce43aU, 0xec1004202beed5f8U, 0xe7f705fbd6f7edf7U, 0xf3ea08f1e717ff0fU,
  0xf20dbdcdf8f2ec0cU, 0xf9e8f909e813fd00U, 0xf428f0f30118fbc2U, 0xf5faf2fae102f413U,
  0x6dc2cd8090cec44U, 0xf5daea0715e2fcf6U, 0xbddd6fbe01300cdU, 0xffef13050ee309e7U,
  0x250337c543f5092fU, 0x16230a1425f7f1e3U, 0xf4d7c4cac9fbfae8U, 0xf60c0210fbf501ceU,
  0xbfedaece6e20b19U, 0xebd6f6fcc5040efbU, 0xfffaf7ef100705e9U, 0xf80ef61403fef7ffU,
  0xfa8300d11b05022dU, 0x2215f70306c40ee5U, 0xdfb9c60fd827fb04U, 0x1122314280218f8U,
  0xdfe2de533132010U, 0x2e25fff32cee0bdbU, 0xefffdb0d0905d608U, 0xf6cd2dfb11e10aU,
  0xfdf9f00bdc02ebe2U, 0x1b36c2ee12ec28f0U, 0xb011607f8e4060aU, 0xfd09c5011ef002d5U,
  0xbc16e7e7f61108U, 0xeadddbe214f800f7U, 0xdd07d80311101de1U, 0xe9ebe1e9fa1ae1U,
  0x504fedbf8fa1bdaU, 0xa18f907f6f0f40fU, 0xcae7ee0204e1f507U, 0x1304fd0d08081cfaU,
  0xefc40a1b151122f0U, 0x13ebcc0fe70a040eU, 0x6f008152908e7e0U, 0x708ed150f071fddU,
  0xffd501c42007f706U, 0x5f0ee190e0b230bU, 0x315fc05021f18e6U, 0xdc01dd1ae9e8fe00U,
  0xebef16de090c0813U, 0xe9e0f2d5f7f30edfU, 0xfdf8f2ea26ef11c5U, 0xed01ef07ecf1f0f7U,
  0x16aecef8fff7dbe5U, 0xf2ca0afeedff0012U, 0xf7d1f60ffffaf6ceU, 0xf30ff90cf3ffe3f3U,
  0xfbe0fbe6041514f3U, 0xf3d909e204e30009U, 0xeff8f30cef0d0bbdU, 0xf6fcf8ecf1070b12U,
  0x13eaff0bfae30bfbU, 0xa1bf508f609eddeU, 0x2ddf80110fe17ceU, 0xdee9f804fbf309eeU,
  0x5ef02fbe9f2f6f4U, 0x3e9e106f114fdU, 0x10050413f31e0308U, 0x22e204fef4c107e1U,
  0xff3dee2d82008dbU, 0xba1c0ce0dc0bf5U, 0xe0fcf7020046f21aU, 0x1a010415fdcbf800U,
  0xd60febf8090d38eaU, 0xec31c1206e107fdU, 0xf7f3060cfb09ff0eU, 0xdecdf9f5eb0813ffU,
  0x50e0df20917fdf8U, 0xf3fe1de0e104e80fU, 0xfadbea041f1c0007U, 0x1bd4f0dffd9f11f5U,
  0xe7e6e4e6dce1fce3U, 0x3cb06fae8eec2ebU, 0xf3f0f907f8eafe0aU, 0x3b1a15d414d52ee5U,
  0xfc04e510fa1d10f2U, 0x4d51815e6f9fbf0U, 0x1b1a121ae71ae6f3U, 0x15e90c0206e9120cU,
  0x101104e31405f218U, 0xfa01141703040bf7U, 0x3fdf9efee11f500U, 0xb02ef1b11b6f912U,
  0xeeec0702050dd4c2U, 0x3ec0cf8050af205U, 0xebde16f828eeede7U, 0xe40ef1f605ec0ae5U,
  0xe3d1d7dcfceee6f1U, 0xffdd16f712f5fcfbU, 0xe3ea0d0aeb04f0edU, 0xeafdd924f4f1090bU,
  0xd8d6ee14f7f9f1f7U, 0xf7e5c6cef5f127edU, 0xeb120cefedeef807U, 0xeeed0b0df311e8ebU,
  0x9f91b0003e712e5U, 0x11fbf4fb12f03b25U, 0xd1efc06010901f0U, 0x2060dd403fd0511U,
  0x6f7edece2f10505U, 0x3f001fef2ed030bU, 0xd1cd5f0d9e8ff0dU, 0xe8e7ccfbf2eeec11U,
  0x11def30300160813U, 0x8d6f31af8f5f900U, 0xf6f6fd2e18eee80cU, 0x11ecf2f5c6e822deU,
  0xf221dbdf208f2f4U, 0x24f1fd11def1c7cdU, 0x2126f9220629eb09U, 0xf80107f6becd03feU,
  0xe22211fdd3ef1504U, 0x19f5150d0503d6d0U, 0x1cf8dde5ed0a02f9U, 0xf9dffbfafeedd60eU,
  0xfaf6150214150f17U, 0xf1d5e00b1216ec10U, 0xfd042007e3dff915U, 0xfd1bf40ce913af00U,
  0x5fc1d060d141607U, 0xfbc0001804fe0510U, 0xf5120efb0cd0faf3U, 0xdf5e0000d22f0d3U,
  0x111317ffedf9fc12U, 0xddcfce22700020aU, 0x505f60f08e40fefU, 0xf8ece2f8f711d80aU,
  0xfb0d1c0105e102f5U, 0xee918f21ad408f0U, 0xf4d207eef00101ddU, 0xe3ebefff0d09ffdeU,
  0xf2f6f3040707fcfcU, 0x24c2fd0e2d05f601U, 0x3e4f90cf91404fdU, 0xf805e207000201f9U,
  0x10f6f7d202fc04f8U, 0xf2ecfcf7fdf81305U, 0xf306fef2f0fa0d03U, 0xe5170c1612fafcdcU,
  0xf5ce01e90ad6351fU, 0xff205f7ed0ef507U, 0x8f90b04060406f6U, 0x1f726fb3b1626fbU,
  0xfa08090eeaf922feU, 0xfef921181c0dfb31U, 0xe8fb08e5fd060110U, 0x140ee6eeff062316U,
  0xe702f004f600d21fU, 0xf904ed1704e8e5ecU, 0xf00a0a1202f4ef16U, 0xf8f2fff8dae20bfbU,
  0x8fbf2f4c90ee1deU, 0xf7ff17eafffb27ebU, 0xdd130707f71acb1aU, 0x5d60cff12df28fcU,
  0xf6010b06df0125fdU, 0x7f50f081202ffd1U, 0x110ff081bf9e708U, 0xf5140cfb0413c40aU,
  0xed02ec0411f90008U, 0x3fced0305f60ef5U, 0xe4f6f6eafa0b0d02U, 0x10070f1004e7f704U,
  0x170cf0f8fa0d2209U, 0x1a00f50314210518U, 0x20914fd091910e6U, 0x1da08f11b02f812U,
  0xeb08f71fdbfee607U, 0x21013f30538faf0U, 0x1bfbeaf90b2a22fcU, 0xbf8f51afdc0e10dU,
  0xd7f2fa10f0f1e0U, 0xf6100206dbedf6f7U, 0xf20b0004fbe1f617U, 0xeebce02eb0001e7U,
  0x5e803da20f00aeeU, 0x12e5e20cf5f70002U, 0xe9f2fceffce0f900U, 0xfad4e90f1ae80004U,
  0xbfa09faf0e0dcd3U, 0xe80121f70d15e6f8U, 0x15d3cadcd4250acbU, 0xb00c2f4fce703e9U,
  0xfcdb05edfaeb01f8U, 0xf4c2e9ee12effe08U, 0xea1d01ff0de60200U, 0xff7fbf3d514f8ddU,
  0xffc239e915f71908U, 0xe2dbff09fbfdfdU, 0x7f0f408ecf10aU, 0xca0be90d201127b4U,
  0x1fef6090adad933U, 0xaf522f31ff6e9fdU, 0x6cdbeb5170505f0U, 0x1904000c0217120dU,
  0x109030a0102e703U, 0xf016fad62619f3f6U, 0x8e2180b0de70205U, 0xf9f4f5fafcf509f5U,
  0x4060000f8f50503U, 0xf4fbfdfff6fdfff7U, 0x3f8f4000501f5f9U, 0xfdfa050607f8fdU,
  0xfcff09fcfbfcf50aU, 0xfdf6f4f1ff05f807U, 0xfa04fcf5fcf6fd01U, 0xf8faf504f6f9f1faU,
  0xfc0204f805fc0300U, 0x70301fdf9f7f70bU, 0xfefd0301f4fbfd03U, 0xfefaf601fbfef8feU,
  0xf30306fcf6fa03faU, 0xfaf70902fef9f9faU, 0xf3f1fa0208fbf7f9U, 0xfb07f7fffa0504ffU,
  0xfefcfd07f904fb01U, 0xf7f506f1faf4fd01U, 0xb06fc050005f0f6U, 0xfaf804f8ff020802U,
  0xfffcf3fdf5030205U, 0xfef3fbf80200f4f7U, 0xf9f7fcfcf9f70500U, 0xfafafd07fcfd08fbU,
  0xff060600f902f4ffU, 0xf5fbf9fbf804fef9U, 0x404fcf90300f7f7U, 0xf3fa04f4f3fef4fbU,
  0xf9fdfd02000603f7U, 0x10301fdff01f1f6U, 0xf704f2f7fef604f4U, 0xf603fdfbf9f702f6U,
  0x3f7050602fdfdU, 0x30407fd00fffcfbU, 0x304f8f7fdfafefdU, 0x1c6f4e2faf0f52dU,
  0xee1003edec06fe17U, 0x21bfafdd4f80ff9U, 0x81202ebf934fd15U, 0xfeecc4f9eda7e4dcU,
  0xfcf601ddfce7fafeU, 0xf0e5ffca160ac1fbU, 0x22e203e9e0ec03f8U, 0xf620e300f9efe9e2U,
  0xee1deaed0eeb03e3U, 0xfdb70ee2f9d6f0e8U, 0xf708fa01e0fe00cdU, 0x51af112eedf0403U,
  0xf8e4f6cb1cdf033aU, 0xfa18f8c115f4eddaU, 0xfde813daf7170b18U, 0x20f6faf3e4edf105U,
  0x1629f1e4070fe7f0U, 0xf923f7fa1e0edbdbU, 0xceffdfd0609fa0eU, 0x4f4f300ed001513U,
  0xf4f805dbfb05e424U, 0x8e50c0d1df80116U, 0xfaf4141a1aedf3ddU, 0xb925f1f8fe010d00U,
  0xd8fbf3db39caf231U, 0xfe1ff80a04cb0b03U, 0x71b05ebf70a031cU, 0x231fecee05e5eb19U,
  0xe71900e0e9fef9f3U, 0xd707df0a140ff70aU, 0xf708f7081a0bd00eU, 0xf7f7070f041629e0U,
  0x5060ddcf7ec0406U, 0x10df514060cfa1fU, 0x2ea10ff1fc8040cU, 0xf90cd3fcfb14eed7U,
  0xce007df17f0f1f7U, 0x121ad8fe0d0fe4f0U, 0x18fb1e24f0d8ea1cU, 0xf30ae5ecfc0c0d09U,
  0x13fa32e414ff200aU, 0xe3d9b6041f0604ebU, 0xbf0ef8fe22fcf807U, 0xddf5ebe2ebf5d6e6U,
  0xecc0d50be3e7eb01U, 0xcbeadeebc9fbf128U, 0xde20ead9f4cdfe03U, 0xf6060dfdf325fa13U,
  0x4f605fb1efcdf0fU, 0xf603f8070a0bfaefU, 0x180509f6fcf6f8f3U, 0x200dc41e06f434e5U,
  0x13a90fed16fff9ecU, 0xd7f513fd04fb02e3U, 0xc160f0229f102e7U, 0xec030707f5d2fafbU,
  0xe503d7d9e403cec8U, 0xd4e2d6de0ef001edU, 0x1fff4f90a02dfd9U, 0x112ae119f602dc12U,
  0x10116fa141f11e3U, 0x13fd0b07f8fe170bU, 0x602f700eb221508U, 0xc0ccef1dcea0dedU,
  0x1caf1df9151909ffU, 0xdbdf0ef9ff15150eU, 0x4f5240c190dfbd1U, 0x1309f1fff2f616edU,
  0xf1ebedf4e0f503f7U, 0xf5070210040602f8U, 0xcfdd1cb0def02b8U, 0x3ecdbf61824fbffU,
  0xcb08e00cf8dc1aU, 0xefedf4090f120603U, 0x3eef5ddf3eb02dcU, 0xf50dbaf81104ffc5U,
  0x5a006f10108f01dU, 0xffd1eb100ef405faU, 0xf411fc19020bfbd8U, 0xff0ed2e30afd0cd2U,
  0xac6000c14efded4U, 0xfbdfc8f0f3f9f0f5U, 0xf800f4080ee8ffd0U, 0xf711d70e1b1806b6U,
  0x3cffe080bf81607U, 0xbec2117ff231700U, 0x5f605fd091809eaU, 0x61ae40b0c080ce2U,
  0xf9d20701f5f20af8U, 0x18df1e01f90c1c19U, 0x2e020e0615090cc5U, 0xf004d30313c80518U,
  0xe7af12ff1af4fde8U, 0xfb0d09d2180af8f4U, 0x1ffa120024fbfdcdU, 0xfeefe30817f50dfdU,
  0xd706110707eb20U, 0xede6f903f0180910U, 0xb0401f5c50908eaU, 0xc0ce81ad90f07e0U,
  0x13b4f6ef0c02fbf2U, 0xbd7f0faea061214U, 0xef06040afff7feb8U, 0xf6f7c31af001e0e1U,
  0xbde14f4000ce910U, 0x401f1f8fee51807U, 0xf11dfe0b05100eedU, 0x6f60efff7f8ef03U,
  0xfb04f2faf90bf818U, 0x20207feeaf610e9U, 0xf3ef0af6f515071cU, 0x80208dbe4e8f51aU,
  0x60c1dff14250301U, 0x1f1cfe17d2f01102U, 0xff0bf1080f200d01U, 0xecf405f818ef0cfcU,
  0xe07eb15f91221f0U, 0xcde0d2709120006U, 0xf06fde71301ffebU, 0xfe080105e314dbf3U,
  0xfa0efaf5ea1b0de8U, 0x10fbdde1f4f5f1U, 0xff090d06e608e4f6U, 0xd125f9049b0dca04U,
  0xf31015d5f6ef1c1dU, 0xaf3cdc0bd990ae0U, 0xc335151af9e2d6fbU, 0xf2f2fcf61eef1efbU,
  0xe1f6e9040d00effeU, 0xec050c0f100214e8U, 0xee18fbe2effb1ff4U, 0xde04fd12f515faa3U,
  0xfde11ad9deed01fbU, 0xf9e7e0dbd6fc08e5U, 0xf4141016eed007feU, 0xfd031ffcde121defU,
  0x22061de8e71e0209U, 0xeff81beae9fd0c08U, 0xf41fff13df0aea0bU, 0x16f5fb0715111005U,
  0xfa0a23071a0a1716U, 0xd09eefdfaf0ff08U, 0xf7e4f418ee0b16f9U, 0xfab6d2f8faef0cf8U,
  0x25f340fce20ef008U, 0xb7ebfbe9091bed03U, 0x6fff3f42f08031dU, 0xd2e4050aeef0fff9U,
  0x1cd50ed3f3d9fbd9U, 0xc1ccecf0fc19fd02U, 0x7f6eae115c006f9U, 0xf00b0f34080b00dcU,
  0x212edfc040f01dbU, 0xf4f8101d22f33124U, 0xffe907d4db11ec12U, 0x17f4fd021ed61f12U,
  0xf4fd1a0a210df3fdU, 0x4f8fb1403fdd421U, 0xec0bdf1a030afbeeU, 0xf9f0a1fbeee313f6U,
  0xe4fb03fa1605fafcU, 0xf10003ffed12c6f9U, 0xedd40d07fa01e2U, 0x1af1fef2d6e423d3U,
  0xe621f0eedd0cf3ffU, 0x14f408fddce4c0daU, 0xf405f00ce515fcffU, 0xfff7ee1809e81409U,
  0x2507e2ecea140806U, 0xfef7e51a04f8f9fdU, 0xfeed0c0ee60a11fdU, 0x70203f40deaf5ffU,
  0x5dce4de04101403U, 0x15d90a0a07fa1904U, 0x20ebfc02171103d5U, 0xeff1bd090efaebd9U,
  0xf5ce07e7fb040be1U, 0x10f40a1cf4d0f902U, 0xe1fe0010e9ec1307U, 0xec11da0816fcdcabU,
  0xffbe03d1eaf3f90fU, 0xebd5f00a0b060dffU, 0xf8f6fee5f6e212cfU, 0xe100316200dfbf9U,
  0x21ee080aec160713U, 0xb000f11f9fb0e0eU, 0xfbfe0405220d19cbU, 0xe3060ef9f512f0fbU,
  0x210a03de17fb0729U, 0xfc14f1230d02140aU, 0x2170fe1f7171cefU, 0xf8d3bdefdb1afacaU,
  0xefcb14c8efec13fdU, 0xecf6ff01fffd1101U, 0x20def3e5f9e70eefU, 0x1d2adb25d324e9d2U,
  0x16ce1801fb060718U, 0xfacdf8e3030e0215U, 0x1e251c13260afce7U, 0xfa30e00bd404e1ffU,
  0xdf4f9b3160b190dU, 0xf3dff0f0e8eb1a05U, 0xe1e0c30062510d2U, 0xdaebb9c9d4e703bbU,
  0xcfe5e2e3fef2e0fcU, 0xaf4e606ede9cae0U, 0xe1cac7e0e7f3dd11U, 0xf0fad7efb802e0e4U,
  0x13dafac1e50b14d0U, 0xf6fdc7f519faf2efU, 0xed0bf1edff0edaeaU, 0xee1aeb02ce09f2f9U,
  0x50d0acde0fd08feU, 0xdaedeaddcdf0e806U, 0xf80df7ed10ed04f8U, 0x7fbe00822e3f50aU,
  0xdac2f802ef0cf4efU, 0xd7f2ebece9f0e80aU, 0x203d5f1f6ee09c6U, 0xfd18edf8e7ede6e6U,
  0xc023f9d6d803f5U, 0xdde5daeeece506f4U, 0x80307fbf2e8fee3U, 0x92c1f00dc13c907U,
  0xd20906eadbcd160aU, 0xe635fce6d7c00ddcU, 0xf10c09f00cf21f1eU, 0xf81aceebbce8f624U,
  0xf9dee6f5f9fbf93bU, 0x11a91710f1f5dee4U, 0xedf7032d1c01f9d1U, 0xf706edee01f3fb01U,
  0xe5d6f6d8180514fcU, 0x1e5dceff3e21903U, 0x80b04fed9fb1beaU, 0xf518ff1ae01e13f4U,
  0x16fe04f9d9142202U, 0xeb2d0a0d3906031aU, 0xe14e5e61fecfa0aU, 0xf309fa11f0f317c9U,
  0xece9fbdaf2ff18e8U, 0xf4ead8eae201fd00U, 0xfe2409eaf6f10aeaU, 0xe5e3f60ae8021ce9U,
  0xf2fefc0beedd17f7U, 0xcedc15d3fb0a12d5U, 0xed0816f20dfd0208U, 0x11cdebeff2fd02e6U,
  0x1e60601e2140cefU, 0xf2e80cce0df6fbf3U, 0x2406dde72a050906U, 0xdbf7ce13d3f125deU,
  0xeefe11e106f406efU, 0xf6c50011f2e804e1U, 0xfeec102cee1416f5U, 0x5ecf7fc1aaf24d1U,
  0xfcefd0e3d4ebfbb5U, 0x4c011f5ec0dac06U, 0xac8ac03fa01edf2U, 0xf609f70000e6ff13U,
  0x131bee19ec1111f0U, 0x12ed0dd80711f0fbU, 0x26001106fb0f1afaU, 0xfd0fec15dd1320c3U,
  0x10e51b1b16e022fcU, 0xe6e508bf06f5fa03U, 0x18091c151eef01dcU, 0x7eaf1e409e027f2U,
  0xe7f8e5fced06eae8U, 0xdde426012004eef3U, 0x6edd2f6220dfbebU, 0xf802d701fbf2fafaU,
  0xefde9f90ffceaf8U, 0xd411031bf409f7U, 0xdeefff100d6f9a9U, 0x1cfc0713e21208eaU,
  0xfbc90dff07f0fa1bU, 0xf1f405fcddfe0510U, 0x3f207ff17d7ffe4U, 0x11fb0507f7fa1516U,
  0xdf100cedd61ce803U, 0xf7031bf3221eddfcU, 0xf3f40a0ef426f21fU, 0xf70ce00be9f5f3faU,
  0xc9906f3ec08ec10U, 0xffffdf7e9ee0806U, 0xdc0808fa1a01f9e3U, 0xffffffa6ffffffb2U,
  0xffffffeffffffff4U, 0xaa00000074U, 0xffffff900000008fU, 0xffffffcdffffff9eU,
  0xffffff6b00000056U, 0x5cfffffeb2U, 0x800000020U, 0xffffffbe00000017U,
  0x48ffffffb9U, 0xffffff6fffffff52U, 0x9c00000125U, 0x5c0000010eU,
  0xffffff19ffffffb4U, 0xd8000000a2U, 0xffffff91ffffffd7U, 0xdffffffc3U,
  0xf3ffffff70U, 0xfffffff100000028U, 0xffffffa9ffffffceU, 0xffffff95ffffffabU,
  0xa00000002U, 0x1500000000U, 0xffffffb4ffffffbaU, 0xffffff1effffffdcU,
  0xffffffcd00000072U, 0xffffffb400000092U, 0xffffffcb0000003cU, 0x10c00000079U,
  0xb200000117U, 0x9e0000003cU, 0x5f0000001bU, 0xed12c30309020319U,
  0xfafe0b1a0117eb16U, 0xb0ea0bfe141303ddU, 0xff19f3fcfe131004U, 0xfc0508efe71611e8U,
  0x306f31bbef62107U, 0x2230ff804f5f80bU, 0xe2cdf504f5dbfc0dU, 0xed15defcf8d309eaU,
  0xe7ff1af5dbd2e61bU, 0xef1ad9dddd01faf0U, 0xcf7e908ffedd3f3U, 0x18fed1d61e1b03eaU,
  0xe8f7cfd6e2f9fdf0U, 0x11700f20d12f3ffU, 0x11f8f8f6f50716efU, 0xf93315e5ce100815U,
  0xfa0a0fdaedf2f5e9U, 0xa1ccdeef607fe04U, 0xf5bee9f20cf9d010U, 0x100208f4f207f907U,
  0xe8f0fde1ea05ec04U, 0xf9ff00faf309f2e1U, 0x3f308fd0df319f2U, 0xe8f1cc010febfe05U,
  0x1fb1aebf1dafaf4U, 0xe11af2fff80a04e3U, 0x3e902e9f304f605U, 0xdfbeee4fb0116e3U,
  0xf82d18ff0c151101U, 0x706e4011015edeeU, 0xf419f1f70ef91302U, 0xf3e8071fd2c9feddU,
  0x8ff0ae7ef00e8fdU, 0xfb14e602fefe05fcU, 0x5f80810fd110906U, 0x1604f0f4fc010318U,
  0xf7f4d6eff9f1edefU, 0xfee7ed0fd3f5e413U, 0x15f9b6f2150614f0U, 0xe72212efe7bb05fcU,
  0xe304efe0e423f109U, 0x1514080cfe0cfb02U, 0xf1eff6f9ed0c11f7U, 0xf1fd0d0a06f4e6f8U,
  0xec0005d9d80d0ff4U, 0x1f3f908fffbe90bU, 0x17e70ee9100a06f8U, 0xe3e1f7e307eefc13U,
